{
  "version": "1.0",
  "truncation": null,
  "padding": null,
  "added_tokens": [
    {
      "id": 0,
      "content": "<UNK>",
      "single_word": false,
      "lstrip": false,
      "rstrip": false,
      "normalized": false,
      "special": true
    },
    {
      "id": 1,
      "content": "<PAD>",
      "single_word": false,
      "lstrip": false,
      "rstrip": false,
      "normalized": false,
      "special": true
    },
    {
      "id": 2,
      "content": "<BOS>",
      "single_word": false,
      "lstrip": false,
      "rstrip": false,
      "normalized": false,
      "special": true
    },
    {
      "id": 3,
      "content": "<EOS>",
      "single_word": false,
      "lstrip": false,
      "rstrip": false,
      "normalized": false,
      "special": true
    }
  ],
  "normalizer": null,
  "pre_tokenizer": null,
  "post_processor": null,
  "decoder": null,
  "model": {
    "type": "BPE",
    "dropout": null,
    "unk_token": "<UNK>",
    "continuing_subword_prefix": null,
    "end_of_word_suffix": null,
    "fuse_unk": false,
    "byte_fallback": false,
    "ignore_merges": false,
    "vocab": {
      "<UNK>": 0,
      "<PAD>": 1,
      "<BOS>": 2,
      "<EOS>": 3,
      "\n": 4,
      " ": 5,
      "!": 6,
      "\"": 7,
      "#": 8,
      "$": 9,
      "%": 10,
      "&": 11,
      "'": 12,
      "(": 13,
      ")": 14,
      "*": 15,
      "+": 16,
      ",": 17,
      "-": 18,
      ".": 19,
      "/": 20,
      "0": 21,
      "1": 22,
      "2": 23,
      "3": 24,
      "4": 25,
      "5": 26,
      "6": 27,
      "7": 28,
      "8": 29,
      "9": 30,
      ":": 31,
      ";": 32,
      "<": 33,
      "=": 34,
      ">": 35,
      "?": 36,
      "@": 37,
      "A": 38,
      "B": 39,
      "C": 40,
      "D": 41,
      "E": 42,
      "F": 43,
      "G": 44,
      "H": 45,
      "I": 46,
      "J": 47,
      "K": 48,
      "L": 49,
      "M": 50,
      "N": 51,
      "O": 52,
      "P": 53,
      "Q": 54,
      "R": 55,
      "S": 56,
      "T": 57,
      "U": 58,
      "V": 59,
      "W": 60,
      "X": 61,
      "Y": 62,
      "Z": 63,
      "[": 64,
      "\\": 65,
      "]": 66,
      "^": 67,
      "_": 68,
      "`": 69,
      "a": 70,
      "b": 71,
      "c": 72,
      "d": 73,
      "e": 74,
      "f": 75,
      "g": 76,
      "h": 77,
      "i": 78,
      "j": 79,
      "k": 80,
      "l": 81,
      "m": 82,
      "n": 83,
      "o": 84,
      "p": 85,
      "q": 86,
      "r": 87,
      "s": 88,
      "t": 89,
      "u": 90,
      "v": 91,
      "w": 92,
      "x": 93,
      "y": 94,
      "z": 95,
      "{": 96,
      "|": 97,
      "}": 98,
      "~": 99,
      " ": 100,
      "¡": 101,
      "¢": 102,
      "£": 103,
      "¤": 104,
      "¥": 105,
      "¦": 106,
      "§": 107,
      "¨": 108,
      "©": 109,
      "ª": 110,
      "«": 111,
      "¬": 112,
      "¯": 113,
      "°": 114,
      "±": 115,
      "²": 116,
      "³": 117,
      "´": 118,
      "µ": 119,
      "¶": 120,
      "·": 121,
      "¸": 122,
      "¹": 123,
      "º": 124,
      "»": 125,
      "¼": 126,
      "½": 127,
      "¾": 128,
      "¿": 129,
      "Â": 130,
      "Ã": 131,
      "Ä": 132,
      "Å": 133,
      "Ë": 134,
      "Î": 135,
      "Ï": 136,
      "Ù": 137,
      "ß": 138,
      "à": 139,
      "á": 140,
      "â": 141,
      "ã": 142,
      "å": 143,
      "æ": 144,
      "è": 145,
      "é": 146,
      "ï": 147,
      "ð": 148,
      "޴": 149,
      "☺": 150,
      "♬": 151,
      "ꀀ": 152,
      "�": 153,
      "e ": 154,
      "th": 155,
      "s ": 156,
      "in": 157,
      "  ": 158,
      "on": 159,
      "er": 160,
      "t ": 161,
      "d ": 162,
      "or": 163,
      "an": 164,
      "re": 165,
      ", ": 166,
      "the ": 167,
      "en": 168,
      "ti": 169,
      "al": 170,
      "ar": 171,
      "st": 172,
      "ed ": 173,
      "ing": 174,
      "at": 175,
      " the ": 176,
      "is ": 177,
      "tion": 178,
      "    ": 179,
      "y ": 180,
      "ec": 181,
      "to": 182,
      "le": 183,
      "se": 184,
      "a ": 185,
      "- ": 186,
      ".\n": 187,
      "me": 188,
      "f ": 189,
      "ing ": 190,
      "or ": 191,
      ". ": 192,
      "de": 193,
      "ou": 194,
      "si": 195,
      "ac": 196,
      ") ": 197,
      "to ": 198,
      "er ": 199,
      "as": 200,
      "il": 201,
      "ex": 202,
      "ro": 203,
      "it": 204,
      "lo": 205,
      "co": 206,
      "ur": 207,
      "Th": 208,
      "mp": 209,
      "on ": 210,
      "ch": 211,
      "and ": 212,
      "in ": 213,
      "es": 214,
      "un": 215,
      "Â¶": 216,
      "Â¶\n": 217,
      "tion ": 218,
      "us": 219,
      "all": 220,
      "Py": 221,
      ">>": 222,
      "es ": 223,
      "ent": 224,
      "an ": 225,
      "no": 226,
      "li": 227,
      "fi": 228,
      "of ": 229,
      "ul": 230,
      "di": 231,
      "ab": 232,
      "con": 233,
      "ad": 234,
      "bj": 235,
      "ver": 236,
      "at ": 237,
      "ter": 238,
      "bjec": 239,
      "as ": 240,
      "() ": 241,
      "be ": 242,
      "wi": 243,
      "um": 244,
      "mo": 245,
      "et": 246,
      ": ": 247,
      "le ": 248,
      "ma": 249,
      "of": 250,
      "ri": 251,
      "The ": 252,
      "wh": 253,
      "val": 254,
      "for": 255,
      "res": 256,
      "l ": 257,
      "urn": 258,
      "        ": 259,
      "for ": 260,
      "ce": 261,
      "ag": 262,
      "am": 263,
      "su": 264,
      "op": 265,
      "pro": 266,
      "str": 267,
      "bu": 268,
      "and": 269,
      "ed": 270,
      "with": 271,
      "ame": 272,
      "cl": 273,
      "yp": 274,
      ")\n": 275,
      "en ": 276,
      "al ": 277,
      "are ": 278,
      "arg": 279,
      "that ": 280,
      "ent ": 281,
      "__": 282,
      "objec": 283,
      ":\n": 284,
      "  - ": 285,
      "unc": 286,
      "so": 287,
      "sion ": 288,
      "sp": 289,
      "= ": 290,
      "ret": 291,
      "> ": 292,
      "valu": 293,
      "pp": 294,
      "call": 295,
      "of the ": 296,
      "qu": 297,
      "func": 298,
      "par": 299,
      "is": 300,
      "the": 301,
      ")Â¶\n": 302,
      ".  ": 303,
      "it ": 304,
      "do": 305,
      "m ": 306,
      "not ": 307,
      ">>> ": 308,
      "te": 309,
      "3.": 310,
      "| ": 311,
      "ed in ": 312,
      "clas": 313,
      "typ": 314,
      "ly ": 315,
      "return": 316,
      "version ": 317,
      "ce ": 318,
      "def": 319,
      "ck": 320,
      "s, ": 321,
      "vi": 322,
      "tho": 323,
      "mod": 324,
      "tr": 325,
      "Pyth": 326,
      "el": 327,
      "ch ": 328,
      "s.": 329,
      "mple": 330,
      "ta": 331,
      "fro": 332,
      "..": 333,
      "ve ": 334,
      "version 3.": 335,
      "ts ": 336,
      "w ": 337,
      "po": 338,
      "with ": 339,
      "ct": 340,
      "wil": 341,
      "ra": 342,
      "ang": 343,
      "sh": 344,
      "can ": 345,
      "metho": 346,
      "by": 347,
      "st ": 348,
      "dat": 349,
      "ack": 350,
      "ne": 351,
      "This ": 352,
      "ame ": 353,
      "will ": 354,
      "able ": 355,
      "this ": 356,
      "ed in version 3.": 357,
      "cep": 358,
      "eci": 359,
      "ces": 360,
      "be": 361,
      "ation ": 362,
      "ol": 363,
      "if ": 364,
      "n ": 365,
      "argum": 366,
      "name": 367,
      "fil": 368,
      "Python ": 369,
      "you": 370,
      "inst": 371,
      "by ": 372,
      "de ": 373,
      "int": 374,
      "ut": 375,
      "ment": 376,
      "sy": 377,
      "lin": 378,
      "ser": 379,
      "ke": 380,
      "ation": 381,
      "fer": 382,
      "aul": 383,
      "Non": 384,
      "class ": 385,
      "up": 386,
      "c ": 387,
      "to the ": 388,
      "read": 389,
      "inter": 390,
      "in the ": 391,
      "ate ": 392,
      "If ": 393,
      "oth": 394,
      ",\n": 395,
      "se ": 396,
      "e, ": 397,
      "low": 398,
      "pa": 399,
      "', ": 400,
      "pre": 401,
      "--": 402,
      "ort": 403,
      "whi": 404,
      "form": 405,
      "defaul": 406,
      "att": 407,
      "te ": 408,
      "Ad": 409,
      "o ": 410,
      "sc": 411,
      "speci": 412,
      "ha": 413,
      "ed to ": 414,
      "sel": 415,
      "ort ": 416,
      "object ": 417,
      "Objec": 418,
      "ule": 419,
      "time": 420,
      "ate": 421,
      "excep": 422,
      "able": 423,
      "imp": 424,
      "('": 425,
      "ribu": 426,
      "s.\n": 427,
      "use ": 428,
      "object": 429,
      "function ": 430,
      "oun": 431,
      "comp": 432,
      "' ": 433,
      "file": 434,
      "Ret": 435,
      "function": 436,
      "rr": 437,
      "# ": 438,
      "s. ": 439,
      "Add": 440,
      "cur": 441,
      "which ": 442,
      "Err": 443,
      "Return": 444,
      "s\n": 445,
      "wor": 446,
      "set": 447,
      "value ": 448,
      "tex": 449,
      "ated ": 450,
      " is ": 451,
      "from ": 452,
      "num": 453,
      "cre": 454,
      "oul": 455,
      "ing the ": 456,
      "em": 457,
      "exp": 458,
      "err": 459,
      "end": 460,
      "gi": 461,
      "ses ": 462,
      "the\n": 463,
      "wa": 464,
      "get": 465,
      "so ": 466,
      "com": 467,
      "Ch": 468,
      "you ": 469,
      "ould ": 470,
      "gn": 471,
      "ve": 472,
      "argument": 473,
      "ter ": 474,
      "sub": 475,
      "00": 476,
      "py": 477,
      "file ": 478,
      "In": 479,
      "me ": 480,
      "supp": 481,
      "exa": 482,
      "k ": 483,
      "rep": 484,
      "ere ": 485,
      ", the ": 486,
      "set ": 487,
      "âs ": 488,
      "method": 489,
      "module": 490,
      "gh": 491,
      "add": 492,
      "x ": 493,
      "ach": 494,
      "char": 495,
      "ren": 496,
      "iter": 497,
      "s are ": 498,
      "path": 499,
      "loc": 500,
      "()": 501,
      "all ": 502,
      "|\n": 503,
      "ari": 504,
      "ail": 505,
      "attribu": 506,
      "mor": 507,
      "ule ": 508,
      "sion": 509,
      "r ": 510,
      "iz": 511,
      "instan": 512,
      "â ": 513,
      "la": 514,
      "out": 515,
      "et ": 516,
      "ad ": 517,
      ", and ": 518,
      "f the ": 519,
      "gg": 520,
      "ary ": 521,
      "Chang": 522,
      "may ": 523,
      "specifi": 524,
      "; ": 525,
      "Tr": 526,
      "ust ": 527,
      "ss": 528,
      "andl": 529,
      "can be ": 530,
      "app": 531,
      "string": 532,
      "Changed in version 3.": 533,
      "ke ": 534,
      "No": 535,
      "return ": 536,
      "der": 537,
      "ly": 538,
      "ev": 539,
      "name ": 540,
      "gr": 541,
      "proces": 542,
      "scri": 543,
      "age ": 544,
      "Added in version 3.": 545,
      "lic": 546,
      "module ": 547,
      "pr": 548,
      "ect": 549,
      "method ": 550,
      "PyObjec": 551,
      "back": 552,
      "ding ": 553,
      "type ": 554,
      "A ": 555,
      "Con": 556,
      ". The ": 557,
      "id": 558,
      "oo": 559,
      "key": 560,
      "defin": 561,
      "ap": 562,
      "lib": 563,
      "numb": 564,
      "self": 565,
      "fol": 566,
      "option": 567,
      "string ": 568,
      "cor": 569,
      "code ": 570,
      "Un": 571,
      "ead": 572,
      "s the ": 573,
      "only ": 574,
      "any ": 575,
      "tes": 576,
      "col": 577,
      "comm": 578,
      "int ": 579,
      "use": 580,
      "ci": 581,
      "ed by ": 582,
      "out ": 583,
      "ener": 584,
      "dic": 585,
      "rect": 586,
      "one ": 587,
      "from": 588,
      "per": 589,
      "when ": 590,
      "ue": 591,
      "ase": 592,
      "siz": 593,
      "==": 594,
      "qui": 595,
      "example": 596,
      "t *": 597,
      "rit": 598,
      "p ": 599,
      "ace": 600,
      "St": 601,
      "1 ": 602,
      "fig": 603,
      "pas": 604,
      "value": 605,
      "our": 606,
      "no ": 607,
      "Ex": 608,
      "follow": 609,
      "-\n": 610,
      "] ": 611,
      "ar ": 612,
      "', '": 613,
      "code": 614,
      "should ": 615,
      "sec": 616,
      "conta": 617,
      "run": 618,
      "have ": 619,
      "lock": 620,
      "feren": 621,
      "has ": 622,
      "its ": 623,
      "vari": 624,
      "tes ": 625,
      "but ": 626,
      "ue ": 627,
      "must ": 628,
      "is a ": 629,
      "ase ": 630,
      "=Non": 631,
      "mess": 632,
      "Se": 633,
      "sign": 634,
      "other ": 635,
      "For ": 636,
      "ati": 637,
      "also ": 638,
      "), ": 639,
      "C ": 640,
      "parame": 641,
      "ment ": 642,
      "L ": 643,
      "fl": 644,
      "atch": 645,
      "used ": 646,
      "curren": 647,
      "Typ": 648,
      "Error ": 649,
      "will be ": 650,
      "ff": 651,
      "direct": 652,
      "star": 653,
      "bo": 654,
      "import ": 655,
      "ure": 656,
      "Py_": 657,
      "s to ": 658,
      "imple": 659,
      "sÂ¶\n": 660,
      "print": 661,
      "Par": 662,
      "writ": 663,
      "scrip": 664,
      "ow": 665,
      "dow": 666,
      "ther ": 667,
      "oper": 668,
      "for the ": 669,
      "provi": 670,
      "EN": 671,
      "PyObject *": 672,
      "IN": 673,
      "0 ": 674,
      "yn": 675,
      "stru": 676,
      "argument ": 677,
      "est": 678,
      "()\n": 679,
      "charac": 680,
      "dec": 681,
      "list": 682,
      "Return ": 683,
      "av": 684,
      "s and ": 685,
      "line ": 686,
      "exec": 687,
      "resul": 688,
      "data ": 689,
      "fin": 690,
      "au": 691,
      "handl": 692,
      "Re": 693,
      "min": 694,
      "exception ": 695,
      "pl": 696,
      ". This ": 697,
      "def ": 698,
      "giv": 699,
      "):\n": 700,
      "same ": 701,
      "default ": 702,
      "...": 703,
      "logg": 704,
      "referen": 705,
      "default": 706,
      "contain": 707,
      "clu": 708,
      "list ": 709,
      "text": 710,
      "e the ": 711,
      "age": 712,
      "type": 713,
      "RE": 714,
      "ong": 715,
      ". I": 716,
      "Uni": 717,
      "pu": 718,
      "aliz": 719,
      "flag": 720,
      "act": 721,
      "af": 722,
      "gener": 723,
      "fir": 724,
      "is not ": 725,
      "thread": 726,
      "test": 727,
      "s a ": 728,
      "tup": 729,
      "new ": 730,
      "Wh": 731,
      "ffer": 732,
      "enco": 733,
      "ally ": 734,
      "sock": 735,
      "was ": 736,
      "bin": 737,
      "text ": 738,
      "cont": 739,
      "                ": 740,
      "ho": 741,
      "T ": 742,
      "tp": 743,
      "I ": 744,
      "asyn": 745,
      "more ": 746,
      "quen": 747,
      "None ": 748,
      "ic": 749,
      "()Â¶\n": 750,
      "are": 751,
      "Mo": 752,
      "with the ": 753,
      "UL": 754,
      "rais": 755,
      "ure ": 756,
      "ator": 757,
      "by the ": 758,
      "ON": 759,
      "s that ": 760,
      "using ": 761,
      "buil": 762,
      "like ": 763,
      "indow": 764,
      "can": 765,
      "number ": 766,
      "las": 767,
      "syst": 768,
      "implement": 769,
      "y, ": 770,
      "s of ": 771,
      "Fal": 772,
      "mul": 773,
      "objects ": 774,
      "ace ": 775,
      "resp": 776,
      "10": 777,
      "error": 778,
      "ist": 779,
      ". If ": 780,
      "following ": 781,
      "ces ": 782,
      "if the ": 783,
      "man": 784,
      "AB": 785,
      "De": 786,
      "='": 787,
      "D ": 788,
      "config": 789,
      "read ": 790,
      "\" ": 791,
      "time ": 792,
      "doc": 793,
      "pi": 794,
      "ext": 795,
      "sing": 796,
      "ful": 797,
      "t of the ": 798,
      "pack": 799,
      "om": 800,
      "inclu": 801,
      "tic": 802,
      "P ": 803,
      "sed ": 804,
      "2 ": 805,
      "we": 806,
      "call ": 807,
      "resent": 808,
      "ese ": 809,
      "E ": 810,
      "is the ": 811,
      "e.": 812,
      "is\n": 813,
      "     ": 814,
      "from the ": 815,
      ").\n": 816,
      "s:\n": 817,
      "Python": 818,
      "der ": 819,
      "ron": 820,
      "du": 821,
      "im": 822,
      "such ": 823,
      "id ": 824,
      "iti": 825,
      "sys.": 826,
      "other": 827,
      "(\"": 828,
      "1, ": 829,
      "non": 830,
      "as a ": 831,
      "ach ": 832,
      "os.": 833,
      "ator ": 834,
      "struct": 835,
      "See ": 836,
      "')\n": 837,
      "head": 838,
      "Note ": 839,
      "e\n": 840,
      "on the ": 841,
      ";\n": 842,
      "__ ": 843,
      "sing ": 844,
      "AP": 845,
      "state": 846,
      "d, ": 847,
      "12": 848,
      "multi": 849,
      "put ": 850,
      "ori": 851,
      "main": 852,
      "Type": 853,
      "a\n": 854,
      "called ": 855,
      "\", ": 856,
      "it is ": 857,
      "em ": 858,
      "current ": 859,
      "ard ": 860,
      "sequen": 861,
      "ER": 862,
      "inte": 863,
      "sib": 864,
      "ting ": 865,
      "ust": 866,
      "ers ": 867,
      "* ": 868,
      "pyth": 869,
      "oc": 870,
      "th ": 871,
      "]\n": 872,
      "does ": 873,
      "OS": 874,
      "respon": 875,
      "mple ": 876,
      "NUL": 877,
      "en the ": 878,
      "ded ": 879,
      "tw": 880,
      "chang": 881,
      "ty ": 882,
      "values ": 883,
      "ther": 884,
      "ver ": 885,
      "coun": 886,
      "... ": 887,
      "t_": 888,
      "bytes ": 889,
      "ument": 890,
      "ing\n": 891,
      "integ": 892,
      "ok": 893,
      "first ": 894,
      "nec": 895,
      "y\n": 896,
      "expres": 897,
      "support": 898,
      "ât ": 899,
      "of a ": 900,
      "len": 901,
      "parameter": 902,
      "es the ": 903,
      "format": 904,
      "std": 905,
      "gram": 906,
      "=None, ": 907,
      "attribute ": 908,
      "way": 909,
      "ed, ": 910,
      "to a ": 911,
      "in a ": 912,
      "ele": 913,
      "ant ": 914,
      "remo": 915,
      "match": 916,
      "exception": 917,
      "hel": 918,
      "') ": 919,
      "Error": 920,
      "must be ": 921,
      "block": 922,
      "posi": 923,
      "avail": 924,
      "True ": 925,
      "arn": 926,
      "tern": 927,
      "instance ": 928,
      "script": 929,
      ".Added in version 3.": 930,
      "chec": 931,
      "than ": 932,
      "'\n": 933,
      "diction": 934,
      "orm": 935,
      "enti": 936,
      "_S": 937,
      "used to ": 938,
      "TH": 939,
      "2.": 940,
      "s(": 941,
      "clo": 942,
      "character": 943,
      "most ": 944,
      "e_": 945,
      "ilit": 946,
      "loop": 947,
      "work": 948,
      "represent": 949,
      "stand": 950,
      "rai": 951,
      "d\n": 952,
      "ory ": 953,
      "ed.\n": 954,
      " (": 955,
      "AS": 956,
      "emp": 957,
      "d.\n": 958,
      "over": 959,
      "- Return ": 960,
      "they ": 961,
      "mock": 962,
      "new": 963,
      "14": 964,
      "error ": 965,
      "to be ": 966,
      "pri": 967,
      "forma": 968,
      "fiel": 969,
      "data": 970,
      "end ": 971,
      "mb": 972,
      "given ": 973,
      "- class ": 974,
      "non-": 975,
      "(self": 976,
      "t\n": 977,
      "igh": 978,
      "            ": 979,
      "ince ": 980,
      "comple": 981,
      "ing.": 982,
      "import": 983,
      "   ": 984,
      "__() ": 985,
      "OR": 986,
      "requ": 987,
      "wid": 988,
      "execut": 989,
      "memor": 990,
      "est ": 991,
      "fr": 992,
      "local": 993,
      "to\n": 994,
      "item": 995,
      "vel ": 996,
      "s for ": 997,
      ".  The ": 998,
      "- The ": 999,
      "informa": 1000,
      "Lo": 1001,
      "tional ": 1002,
      " = ": 1003,
      "ating ": 1004,
      "some ": 1005,
      "ile ": 1006,
      "parser": 1007,
      "and\n": 1008,
      "flo": 1009,
      "path ": 1010,
      "e(": 1011,
      "termin": 1012,
      "may be ": 1013,
      "then ": 1014,
      "acces": 1015,
      "s (": 1016,
      "fo": 1017,
      "ough": 1018,
      "open": 1019,
      "ource ": 1020,
      "When ": 1021,
      "Window": 1022,
      "program": 1023,
      "OC": 1024,
      ".Changed in version 3.": 1025,
      "cal": 1026,
      "0.": 1027,
      "long": 1028,
      "where ": 1029,
      "addres": 1030,
      "ip": 1031,
      "ll ": 1032,
      "level ": 1033,
      "tive ": 1034,
      "t is ": 1035,
      "For example": 1036,
      "Pro": 1037,
      ", or ": 1038,
      "as the ": 1039,
      "each ": 1040,
      "ash": 1041,
      "PE": 1042,
      "inde": 1043,
      "support ": 1044,
      "does not ": 1045,
      "able AB": 1046,
      "put": 1047,
      "your ": 1048,
      "tp_": 1049,
      "secon": 1050,
      "Stable AB": 1051,
      "requi": 1052,
      "allow": 1053,
      "should be ": 1054,
      "ted ": 1055,
      ", but ": 1056,
      "lob": 1057,
      "g ": 1058,
      "do ": 1059,
      "t of the Stable AB": 1060,
      "ed\n": 1061,
      "not be ": 1062,
      "pat": 1063,
      "pret": 1064,
      "13": 1065,
      "pos": 1066,
      "mean": 1067,
      "filen": 1068,
      "befor": 1069,
      "ause ": 1070,
      "DE": 1071,
      "stor": 1072,
      "mail": 1073,
      "ous ": 1074,
      "now ": 1075,
      "ding": 1076,
      "ates ": 1077,
      "been ": 1078,
      "ever": 1079,
      "rec": 1080,
      "ds ": 1081,
      "get ": 1082,
      "keywor": 1083,
      "zer": 1084,
      ".  I": 1085,
      "and the ": 1086,
      "ound ": 1087,
      "Return the ": 1088,
      "ecim": 1089,
      "there ": 1090,
      "initi": 1091,
      "version": 1092,
      "socket": 1093,
      "envi": 1094,
      "grou": 1095,
      "=None": 1096,
      "message ": 1097,
      "gin": 1098,
      "**": 1099,
      "1.": 1100,
      "since ": 1101,
      "mode": 1102,
      "NULL ": 1103,
      "self.": 1104,
      "Op": 1105,
      "foo": 1106,
      "obj": 1107,
      "ask": 1108,
      "parse": 1109,
      "provide": 1110,
      "check": 1111,
      "vel": 1112,
      "ary": 1113,
      "ir ": 1114,
      "applic": 1115,
      "ing a ": 1116,
      "ess": 1117,
      "size ": 1118,
      "0, ": 1119,
      "parameter ": 1120,
      "two ": 1121,
      "variable": 1122,
      "----": 1123,
      ".S": 1124,
      "her": 1125,
      "these ": 1126,
      "ream": 1127,
      "tail": 1128,
      "proto": 1129,
      "bytes": 1130,
      "interpret": 1131,
      "manag": 1132,
      "Part of the Stable AB": 1133,
      "ei": 1134,
      "HT": 1135,
      "plat": 1136,
      "arch": 1137,
      ". A": 1138,
      "hand": 1139,
      "alloc": 1140,
      "fail": 1141,
      "event ": 1142,
      "|  ": 1143,
      "environ": 1144,
      "d_": 1145,
      "args": 1146,
      "print(": 1147,
      "nota": 1148,
      "pend": 1149,
      "differ": 1150,
      "AL": 1151,
      "types ": 1152,
      "number of ": 1153,
      "11": 1154,
      "if": 1155,
      "python": 1156,
      "Handl": 1157,
      "exist": 1158,
      "returned ": 1159,
      "lib.": 1160,
      "Val": 1161,
      "ile": 1162,
      "ect ": 1163,
      "tuple ": 1164,
      "d.": 1165,
      "date": 1166,
      "instance": 1167,
      "da": 1168,
      "alway": 1169,
      "...     ": 1170,
      "tle": 1171,
      "key ": 1172,
      "cally ": 1173,
      "quival": 1174,
      "glob": 1175,
      "without ": 1176,
      "get_": 1177,
      "ST": 1178,
      "detail": 1179,
      "bet": 1180,
      "cle": 1181,
      " | ": 1182,
      "ign": 1183,
      "document": 1184,
      "load": 1185,
      "En": 1186,
      "prec": 1187,
      "libr": 1188,
      "standard ": 1189,
      "False": 1190,
      "s in ": 1191,
      "    - ": 1192,
      "red ": 1193,
      "format ": 1194,
      "': ": 1195,
      "Co": 1196,
      "ir": 1197,
      "lim": 1198,
      "sible ": 1199,
      "number": 1200,
      "tran": 1201,
      ").": 1202,
      "fe": 1203,
      "ic ": 1204,
      "x, ": 1205,
      "types": 1206,
      "temp": 1207,
      "raise": 1208,
      "context ": 1209,
      "AR": 1210,
      "rang": 1211,
      "descript": 1212,
      "under": 1213,
      "reference ": 1214,
      "option ": 1215,
      "built": 1216,
      "syn": 1217,
      "2, ": 1218,
      "SS": 1219,
      "stat": 1220,
      "form ": 1221,
      "system": 1222,
      "repl": 1223,
      ". Changed in version 3.": 1224,
      "Ra": 1225,
      "up ": 1226,
      "thread ": 1227,
      "example ": 1228,
      "asynci": 1229,
      "['": 1230,
      "that the ": 1231,
      "correspon": 1232,
      "case": 1233,
      "disp": 1234,
      "s.  ": 1235,
      "context": 1236,
      "created ": 1237,
      "y: ": 1238,
      "with a ": 1239,
      "=None)Â¶\n": 1240,
      "memb": 1241,
      "): ": 1242,
      "bec": 1243,
      "create ": 1244,
      "UT": 1245,
      "bit": 1246,
      "max": 1247,
      "point": 1248,
      "single ": 1249,
      "dis": 1250,
      "...\n": 1251,
      "character ": 1252,
      "reg": 1253,
      "tions ": 1254,
      "system ": 1255,
      "debu": 1256,
      ".__": 1257,
      "kw": 1258,
      "IT": 1259,
      "tt": 1260,
      "beha": 1261,
      "stan": 1262,
      "s() ": 1263,
      "ser ": 1264,
      "+ ": 1265,
      "s_": 1266,
      "hash": 1267,
      "specified ": 1268,
      "auto": 1269,
      "tuple": 1270,
      "ast": 1271,
      "see ": 1272,
      "event": 1273,
      "To ": 1274,
      "coll": 1275,
      "Name": 1276,
      "aceback": 1277,
      "always ": 1278,
      "(PyObject *": 1279,
      "fix": 1280,
      "ead ": 1281,
      "defined ": 1282,
      "result ": 1283,
      "quivalent ": 1284,
      "ations ": 1285,
      "ll": 1286,
      "their ": 1287,
      "multip": 1288,
      "win": 1289,
      "regi": 1290,
      ", which ": 1291,
      ". Th": 1292,
      "request": 1293,
      "4 ": 1294,
      "tur": 1295,
      "handler": 1296,
      "available ": 1297,
      "On ": 1298,
      "TP": 1299,
      "ali": 1300,
      "of\n": 1301,
      "AN": 1302,
      "exten": 1303,
      "leng": 1304,
      "les": 1305,
      "abilit": 1306,
      "test ": 1307,
      "ml": 1308,
      "otherwi": 1309,
      "|  | ": 1310,
      "interf": 1311,
      "False ": 1312,
      "ual ": 1313,
      "- S": 1314,
      "off": 1315,
      "_C": 1316,
      "py ": 1317,
      "== ": 1318,
      "IM": 1319,
      "arra": 1320,
      "accep": 1321,
      "preter": 1322,
      "callback": 1323,
      "using the ": 1324,
      ": The ": 1325,
      "process ": 1326,
      "indic": 1327,
      "line": 1328,
      "Config": 1329,
      "user": 1330,
      "server": 1331,
      "raise ": 1332,
      "Di": 1333,
      "connec": 1334,
      "optional ": 1335,
      "Mod": 1336,
      "In ": 1337,
      "ak": 1338,
      "memory ": 1339,
      "sequence ": 1340,
      "Pa": 1341,
      "element": 1342,
      "cap": 1343,
      "stream": 1344,
      "list of ": 1345,
      "addi": 1346,
      "PY": 1347,
      "ity ": 1348,
      "dig": 1349,
      "directory ": 1350,
      "stri": 1351,
      "expression": 1352,
      "dictionary ": 1353,
      "iv": 1354,
      "functions ": 1355,
      "An": 1356,
      "command ": 1357,
      "warn": 1358,
      ">\n": 1359,
      "ht": 1360,
      ".py": 1361,
      "deco": 1362,
      "- A ": 1363,
      "values": 1364,
      "wait": 1365,
      "message": 1366,
      "behavi": 1367,
      "cli": 1368,
      "consi": 1369,
      "_F": 1370,
      "s=": 1371,
      "at the ": 1372,
      "different ": 1373,
      ".The ": 1374,
      "is an ": 1375,
      " and ": 1376,
      "Ne": 1377,
      ", it ": 1378,
      "classes ": 1379,
      "that": 1380,
      "annota": 1381,
      "dir": 1382,
      "ree ": 1383,
      "dict": 1384,
      "ound": 1385,
      "information ": 1386,
      "work ": 1387,
      "output ": 1388,
      "UM": 1389,
      "variable ": 1390,
      "such as ": 1391,
      "S ": 1392,
      "o.": 1393,
      "Su": 1394,
      "case ": 1395,
      "stack": 1396,
      "arguments ": 1397,
      "gu": 1398,
      "ular ": 1399,
      "eff": 1400,
      "ree": 1401,
      "command": 1402,
      "fy": 1403,
      "asser": 1404,
      "construct": 1405,
      "suc": 1406,
      "empty ": 1407,
      "om ": 1408,
      "mapp": 1409,
      "interpreter ": 1410,
      "conver": 1411,
      "encoding ": 1412,
      "when the ": 1413,
      "attributes ": 1414,
      "initializ": 1415,
      "You": 1416,
      "my": 1417,
      "ph": 1418,
      "float": 1419,
      "platform": 1420,
      "order ": 1421,
      "passed ": 1422,
      "Po": 1423,
      "both": 1424,
      "betwe": 1425,
      "IP": 1426,
      "ful ": 1427,
      "compres": 1428,
      "modi": 1429,
      "ative ": 1430,
      "stati": 1431,
      "t.": 1432,
      "descri": 1433,
      "install": 1434,
      "lay": 1435,
      "ignor": 1436,
      "Part of the Stable ABI": 1437,
      "rele": 1438,
      "methods ": 1439,
      "size": 1440,
      "\")\n": 1441,
      "equivalent ": 1442,
      "contro": 1443,
      "or\n": 1444,
      "ed by the ": 1445,
      "low ": 1446,
      "))\n": 1447,
      "An ": 1448,
      "norm": 1449,
      "True": 1450,
      "how ": 1451,
      "would ": 1452,
      "order": 1453,
      "integer ": 1454,
      "LE": 1455,
      "being ": 1456,
      "link": 1457,
      "AC": 1458,
      "entr": 1459,
      "header": 1460,
      "ear": 1461,
      "Value": 1462,
      "a new ": 1463,
      "act ": 1464,
      "PEP ": 1465,
      "UR": 1466,
      "ory": 1467,
      "lit": 1468,
      "instead ": 1469,
      "\"\"": 1470,
      "level": 1471,
      "attribute": 1472,
      "API": 1473,
      "separ": 1474,
      "ages ": 1475,
      "statement": 1476,
      "AT": 1477,
      "targ": 1478,
      "configur": 1479,
      "sa": 1480,
      "about ": 1481,
      "parser.": 1482,
      "saf": 1483,
      "spec": 1484,
      ".  This ": 1485,
      "be\n": 1486,
      "group": 1487,
      "cust": 1488,
      "either ": 1489,
      "attr": 1490,
      "ENT ": 1491,
      "() .\n": 1492,
      "point ": 1493,
      "name, ": 1494,
      "nât ": 1495,
      "orts ": 1496,
      "Added ": 1497,
      "Excep": 1498,
      "start": 1499,
      "99": 1500,
      "source ": 1501,
      "uni": 1502,
      "3 ": 1503,
      "row": 1504,
      "vo": 1505,
      "buffer": 1506,
      "que": 1507,
      "except ": 1508,
      "Str": 1509,
      "dist": 1510,
      "some": 1511,
      "only": 1512,
      "-in ": 1513,
      "So": 1514,
      "ough ": 1515,
      "\"\n": 1516,
      "identi": 1517,
      "start ": 1518,
      "If the ": 1519,
      "for a ": 1520,
      "_G": 1521,
      "uses ": 1522,
      "before ": 1523,
      "nam": 1524,
      "one": 1525,
      "- C": 1526,
      "ed. ": 1527,
      "pass": 1528,
      "multiple ": 1529,
      "interpreter": 1530,
      "atch ": 1531,
      "class": 1532,
      "add_": 1533,
      "ually ": 1534,
      "You ": 1535,
      "ge": 1536,
      "slo": 1537,
      "time.": 1538,
      "Note that ": 1539,
      "base ": 1540,
      "init": 1541,
      "way ": 1542,
      "O ": 1543,
      "ffer ": 1544,
      "-like ": 1545,
      "remov": 1546,
      "calle": 1547,
      "describ": 1548,
      ".  If ": 1549,
      "specific ": 1550,
      "implementation ": 1551,
      "the same ": 1552,
      "raised ": 1553,
      "mac": 1554,
      "mati": 1555,
      "-  ": 1556,
      "s, and ": 1557,
      "pick": 1558,
      "info": 1559,
      "ard": 1560,
      "not": 1561,
      ": Added ": 1562,
      "encoding": 1563,
      "Ar": 1564,
      "b'": 1565,
      ", this ": 1566,
      "ster": 1567,
      "righ": 1568,
      "ook": 1569,
      "mode ": 1570,
      "( ": 1571,
      "wra": 1572,
      "ref": 1573,
      "e.g": 1574,
      "iel": 1575,
      "ms": 1576,
      "namesp": 1577,
      "close": 1578,
      "filename": 1579,
      "ten ": 1580,
      "sym": 1581,
      "sum": 1582,
      "Li": 1583,
      "sti": 1584,
      "er.": 1585,
      "abo": 1586,
      "chil": 1587,
      "appro": 1588,
      "reference": 1589,
      "//": 1590,
      "mar": 1591,
      "s) ": 1592,
      "s: ": 1593,
      "tag": 1594,
      "whe": 1595,
      "sol": 1596,
      "-1": 1597,
      "inher": 1598,
      "asi": 1599,
      "want ": 1600,
      "content": 1601,
      "intern": 1602,
      "struc": 1603,
      "keyword ": 1604,
      "corresponding ": 1605,
      "window": 1606,
      "tool": 1607,
      "now": 1608,
      "ep": 1609,
      "in\n": 1610,
      "bar": 1611,
      "after ": 1612,
      "turtle": 1613,
      "=\n": 1614,
      "you can ": 1615,
      "frame": 1616,
      "zero": 1617,
      "-8": 1618,
      "into ": 1619,
      "Path": 1620,
      "DOC": 1621,
      "state ": 1622,
      "outin": 1623,
      "equ": 1624,
      "END ": 1625,
      "mon": 1626,
      "c.": 1627,
      "c_": 1628,
      "returns ": 1629,
      "xml": 1630,
      ")) ": 1631,
      "}\n": 1632,
      "last": 1633,
      "task": 1634,
      "s = ": 1635,
      "ty": 1636,
      "ased ": 1637,
      "runn": 1638,
      "Module": 1639,
      "thr": 1640,
      "OM": 1641,
      "cer": 1642,
      "re ": 1643,
      "input ": 1644,
      "# ==": 1645,
      "ection": 1646,
      "ate_": 1647,
      "Inter": 1648,
      "s of the ": 1649,
      "0000": 1650,
      "15": 1651,
      "XM": 1652,
      "eco": 1653,
      "exit": 1654,
      " *": 1655,
      "fic": 1656,
      "CI": 1657,
      "ven": 1658,
      "we ": 1659,
      "roo": 1660,
      "an exception ": 1661,
      "side ": 1662,
      "as\n": 1663,
      "depend": 1664,
      "produ": 1665,
      "overri": 1666,
      "cach": 1667,
      "===\n": 1668,
      "DOCUM": 1669,
      "assign": 1670,
      "licit": 1671,
      "copy": 1672,
      "index": 1673,
      "base": 1674,
      "just ": 1675,
      "logging.": 1676,
      "limit": 1677,
      "built-in ": 1678,
      "On": 1679,
      "fut": 1680,
      "(self, ": 1681,
      "). ": 1682,
      "16": 1683,
      "ain": 1684,
      "fact": 1685,
      ", a ": 1686,
      "url": 1687,
      "= DOCUM": 1688,
      "use the ": 1689,
      "ENT END ": 1690,
      "# === DOCUM": 1691,
      "ENT END ===\n": 1692,
      "# === DOCUMENT END ===\n": 1693,
      "ource": 1694,
      "handler ": 1695,
      ". It ": 1696,
      "because ": 1697,
      "also": 1698,
      "(), ": 1699,
      "since version 3.": 1700,
      "pres": 1701,
      "T_": 1702,
      "const ": 1703,
      "valid ": 1704,
      "need to ": 1705,
      "an\n": 1706,
      "section ": 1707,
      "vail": 1708,
      ", if ": 1709,
      "---": 1710,
      "binary ": 1711,
      "0x": 1712,
      "RF": 1713,
      "ected ": 1714,
      "thing ": 1715,
      "tim": 1716,
      "acti": 1717,
      "Test": 1718,
      "pattern": 1719,
      "environment ": 1720,
      "File": 1721,
      "byte": 1722,
      "19": 1723,
      "s is ": 1724,
      "dele": 1725,
      "paren": 1726,
      "between ": 1727,
      "top": 1728,
      "extr": 1729,
      "Python 3.": 1730,
      "ecimal": 1731,
      "net": 1732,
      "til": 1733,
      "socket ": 1734,
      "automati": 1735,
      "email": 1736,
      "Object": 1737,
      "ING": 1738,
      "require": 1739,
      "named ": 1740,
      "item ": 1741,
      ". Added in version 3.": 1742,
      "help": 1743,
      "*, ": 1744,
      "Clas": 1745,
      "[1": 1746,
      "instead": 1747,
      "integer": 1748,
      "Call": 1749,
      "bre": 1750,
      "ob": 1751,
      "origin": 1752,
      ",'": 1753,
      "lef": 1754,
      "met": 1755,
      "make ": 1756,
      "ready ": 1757,
      "Def": 1758,
      "vie": 1759,
      "has been ": 1760,
      "http": 1761,
      "local ": 1762,
      "ability: ": 1763,
      "buffer ": 1764,
      "instances ": 1765,
      "both ": 1766,
      "ble": 1767,
      "user ": 1768,
      "for\n": 1769,
      "Part of the Stable ABI.": 1770,
      "vailability: ": 1771,
      "Run": 1772,
      "X ": 1773,
      ") >>> ": 1774,
      "Gener": 1775,
      "Sp": 1776,
      "\\n": 1777,
      "owever": 1778,
      "=False": 1779,
      "need": 1780,
      "ord": 1781,
      "iterable": 1782,
      "useful ": 1783,
      ".  Th": 1784,
      "precated ": 1785,
      "annotation": 1786,
      "does": 1787,
      "succes": 1788,
      "kes ": 1789,
      "execu": 1790,
      "tly ": 1791,
      "ilar ": 1792,
      "() method ": 1793,
      "s. The ": 1794,
      "even ": 1795,
      "asyncio.": 1796,
      "PyType": 1797,
      "compati": 1798,
      "lying ": 1799,
      "lat": 1800,
      "ca": 1801,
      "ded": 1802,
      "Unicode ": 1803,
      "header ": 1804,
      "occur": 1805,
      "possible ": 1806,
      "PyObject_": 1807,
      "ID": 1808,
      "those ": 1809,
      "set_": 1810,
      "20": 1811,
      "Bu": 1812,
      "Me": 1813,
      "look": 1814,
      "spam": 1815,
      "Unicode": 1816,
      "Mock": 1817,
      "main ": 1818,
      "  - The ": 1819,
      "Func": 1820,
      "{\n": 1821,
      "- os.": 1822,
      "chron": 1823,
      "trans": 1824,
      "25": 1825,
      "AG": 1826,
      "IL": 1827,
      "liter": 1828,
      "yiel": 1829,
      "|---": 1830,
      "    def ": 1831,
      "parser ": 1832,
      "server ": 1833,
      "Exa": 1834,
      "are\n": 1835,
      "log": 1836,
      "col ": 1837,
      "he": 1838,
      "API ": 1839,
      "expression ": 1840,
      "Arg": 1841,
      "mis": 1842,
      "last ": 1843,
      "3, ": 1844,
      "compil": 1845,
      "run ": 1846,
      "less ": 1847,
      "protocol": 1848,
      "replac": 1849,
      "-1 ": 1850,
      "dur": 1851,
      "tk": 1852,
      "action": 1853,
      "show": 1854,
      "from a ": 1855,
      "s in the ": 1856,
      "inv": 1857,
      "defaults ": 1858,
      "provide ": 1859,
      "calling ": 1860,
      "char *": 1861,
      "TP ": 1862,
      "ated": 1863,
      "traceback": 1864,
      "first": 1865,
      "ASCI": 1866,
      "Rai": 1867,
      "s, the ": 1868,
      "defini": 1869,
      "host": 1870,
      "-level ": 1871,
      "SE": 1872,
      "determin": 1873,
      "proper": 1874,
      "length ": 1875,
      "Mess": 1876,
      "ima": 1877,
      "while ": 1878,
      "given": 1879,
      " to ": 1880,
      "-b": 1881,
      "python ": 1882,
      "Ke": 1883,
      "Warn": 1884,
      "supports ": 1885,
      "value: ": 1886,
      "after": 1887,
      "lang": 1888,
      "mut": 1889,
      "onât ": 1890,
      "quo": 1891,
      "subclass ": 1892,
      "evalu": 1893,
      ".If ": 1894,
      "- This ": 1895,
      "- Return the ": 1896,
      ". If the ": 1897,
      "feat": 1898,
      "result": 1899,
      "ecimal ": 1900,
      "classe": 1901,
      "/)Â¶\n": 1902,
      "compatib": 1903,
      "already ": 1904,
      "() method": 1905,
      "Comp": 1906,
      "RFC ": 1907,
      "NO": 1908,
      "extension ": 1909,
      "IG": 1910,
      "who": 1911,
      "self ": 1912,
      "int Py": 1913,
      "y.\n": 1914,
      "ed for ": 1915,
      "formatt": 1916,
      "write ": 1917,
      "field ": 1918,
      "fy ": 1919,
      "ask ": 1920,
      "byte ": 1921,
      "recor": 1922,
      "um ": 1923,
      "UTF": 1924,
      "RO": 1925,
      "attributes": 1926,
      "4.": 1927,
      "know": 1928,
      "output": 1929,
      ");\n": 1930,
      "es, ": 1931,
      "tem": 1932,
      "which": 1933,
      "ext ": 1934,
      "wait ": 1935,
      "async ": 1936,
      "ue, ": 1937,
      "own": 1938,
      "register": 1939,
      "is_": 1940,
      "them ": 1941,
      "test.": 1942,
      "db": 1943,
      "underlying ": 1944,
      "ection ": 1945,
      "file descript": 1946,
      "size_": 1947,
      "UN": 1948,
      "sch": 1949,
      "t(": 1950,
      "medi": 1951,
      "Wi": 1952,
      "function is ": 1953,
      "additional ": 1954,
      "    | ": 1955,
      "rather ": 1956,
      "ared ": 1957,
      "high": 1958,
      "or a ": 1959,
      "soci": 1960,
      "Handler": 1961,
      "warning": 1962,
      "**kw": 1963,
      "32": 1964,
      "AM": 1965,
      "color": 1966,
      "available": 1967,
      "=\"": 1968,
      "ed as ": 1969,
      "Al": 1970,
      "match ": 1971,
      "sort": 1972,
      "true ": 1973,
      "'.": 1974,
      "hol": 1975,
      "Thread": 1976,
      "prefix": 1977,
      "Cont": 1978,
      "coroutin": 1979,
      "See also": 1980,
      "library ": 1981,
      "rand": 1982,
      "inu": 1983,
      "tok": 1984,
      "for example": 1985,
      "ell": 1986,
      "operation": 1987,
      "(the ": 1988,
      "send": 1989,
      "al\n": 1990,
      "ed in the ": 1991,
      "sig": 1992,
      "ation of ": 1993,
      "special ": 1994,
      "Note": 1995,
      "Type ": 1996,
      "PyObject *Py": 1997,
      "decor": 1998,
      "HTTP": 1999,
      "want to ": 2000,
      "associ": 2001,
      "None": 2002,
      "6 ": 2003,
      "en\n": 2004,
      "are not ": 2005,
      ". In ": 2006,
      "For example, ": 2007,
      "Fr": 2008,
      "another ": 2009,
      "sim": 2010,
      "modules ": 2011,
      "IPv": 2012,
      "ight ": 2013,
      "global ": 2014,
      "interface ": 2015,
      "5 ": 2016,
      "application": 2017,
      "display": 2018,
      "turtle.": 2019,
      "pop": 2020,
      "es.\n": 2021,
      "neg": 2022,
      "inherit": 2023,
      "File ": 2024,
      "m.": 2025,
      "mi": 2026,
      "part ": 2027,
      "bod": 2028,
      "written ": 2029,
      "- Return value: ": 2030,
      "distribu": 2031,
      "y.": 2032,
      "ech": 2033,
      "msg": 2034,
      "langu": 2035,
      "Base": 2036,
      "signal": 2037,
      "New ": 2038,
      "identifi": 2039,
      "AD": 2040,
      "OF": 2041,
      "i ": 2042,
      "dow ": 2043,
      "element ": 2044,
      "second": 2045,
      "PYTH": 2046,
      "',\n": 2047,
      "many ": 2048,
      "PYTHON": 2049,
      "s)Â¶\n": 2050,
      ". |\n": 2051,
      "Use ": 2052,
      "_D": 2053,
      "pe": 2054,
      "thing": 2055,
      "input": 2056,
      "() and": 2057,
      "second ": 2058,
      "protocol ": 2059,
      "Lib": 2060,
      "jo": 2061,
      "s,\n": 2062,
      "field": 2063,
      "widget": 2064,
      "were ": 2065,
      "    # ": 2066,
      "ast ": 2067,
      "directly ": 2068,
      "tern ": 2069,
      "return the ": 2070,
      "otherwise": 2071,
      "configuration ": 2072,
      "const char *": 2073,
      "partic": 2074,
      "ell ": 2075,
      "member": 2076,
      "constan": 2077,
      "Parser": 2078,
      "ous": 2079,
      "str ": 2080,
      "et the ": 2081,
      "used": 2082,
      "information": 2083,
      "64": 2084,
      "  - Return ": 2085,
      "ast.": 2086,
      "that\n": 2087,
      "wrapp": 2088,
      "ints ": 2089,
      "polic": 2090,
      "long ": 2091,
      "-only ": 2092,
      "BU": 2093,
      "esp": 2094,
      "         ": 2095,
      "window ": 2096,
      "static ": 2097,
      "  # ": 2098,
      "ere": 2099,
      "or the ": 2100,
      "returns a ": 2101,
      "Defaul": 2102,
      "Other": 2103,
      "~~": 2104,
      "to use ": 2105,
      "conven": 2106,
      "callable ": 2107,
      "containing ": 2108,
      "package ": 2109,
      "_Get": 2110,
      "licitly ": 2111,
      "fal": 2112,
      "tri": 2113,
      "updat": 2114,
      "application ": 2115,
      "IC": 2116,
      "ION": 2117,
      "ance": 2118,
      "red": 2119,
      "\") ": 2120,
      "rece": 2121,
      "ite ": 2122,
      "is no ": 2123,
      "compar": 2124,
      "Error is ": 2125,
      "By": 2126,
      "names ": 2127,
      "provided ": 2128,
      "synta": 2129,
      "']": 2130,
      "numer": 2131,
      "--------": 2132,
      "Metho": 2133,
      "p.": 2134,
      "us ": 2135,
      "value is ": 2136,
      "logging ": 2137,
      "del": 2138,
      "like": 2139,
      "previ": 2140,
      "rela": 2141,
      "ed to the ": 2142,
      "our ": 2143,
      "lines ": 2144,
      "] = ": 2145,
      "consider": 2146,
      "entry ": 2147,
      "manager ": 2148,
      "IO": 2149,
      "[, ": 2150,
      "what ": 2151,
      "value, ": 2152,
      "cannot be ": 2153,
      "include ": 2154,
      "\", \"": 2155,
      "count": 2156,
      "provides ": 2157,
      "ind": 2158,
      "es\n": 2159,
      "timeout ": 2160,
      "can be used to ": 2161,
      "By ": 2162,
      "Form": 2163,
      "ffi": 2164,
      "The following ": 2165,
      "')": 2166,
      "ence ": 2167,
      "b ": 2168,
      "of this ": 2169,
      "parse ": 2170,
      "longer ": 2171,
      "Fl": 2172,
      "Read": 2173,
      "ush": 2174,
      "try": 2175,
      "object.\n": 2176,
      "name of the ": 2177,
      "flag ": 2178,
      "zero ": 2179,
      "It ": 2180,
      "generator ": 2181,
      "otherwise ": 2182,
      "array ": 2183,
      "ASCII ": 2184,
      "filter": 2185,
      "Availability: ": 2186,
      "could ": 2187,
      "() is ": 2188,
      "args, ": 2189,
      "including ": 2190,
      "pattern ": 2191,
      "Decimal": 2192,
      "any": 2193,
      "object is ": 2194,
      ", and the ": 2195,
      "target": 2196,
      "fo ": 2197,
      "s with ": 2198,
      "search": 2199,
      "conn": 2200,
      "necess": 2201,
      "handle": 2202,
      "(f": 2203,
      "As": 2204,
      "i.": 2205,
      "sm": 2206,
      "on a ": 2207,
      "auth": 2208,
      "widget ": 2209,
      "IS": 2210,
      "them": 2211,
      "connection": 2212,
      "e.g. ": 2213,
      "sco": 2214,
      "dest": 2215,
      "node": 2216,
      "most rec": 2217,
      "existing ": 2218,
      "POS": 2219,
      ">>> mock": 2220,
      "Cust": 2221,
      "var": 2222,
      "ing to ": 2223,
      "wise": 2224,
      "calls ": 2225,
      "NULL": 2226,
      "do not ": 2227,
      "still ": 2228,
      "whether ": 2229,
      "However": 2230,
      "} ": 2231,
      "ing, ": 2232,
      "return a ": 2233,
      "avo": 2234,
      "automatically ": 2235,
      "() to ": 2236,
      "__init": 2237,
      "t the ": 2238,
      "include": 2239,
      "operation ": 2240,
      "LO": 2241,
      "patch": 2242,
      "These ": 2243,
      "statement ": 2244,
      "stderr": 2245,
      "Y ": 2246,
      "ww": 2247,
      "ed with ": 2248,
      "dif": 2249,
      "common ": 2250,
      "section": 2251,
      "day": 2252,
      "Raises ": 2253,
      "loop.": 2254,
      "4, ": 2255,
      "5, ": 2256,
      "a, ": 2257,
      "v ": 2258,
      "stop": 2259,
      "ects ": 2260,
      "sever": 2261,
      "append": 2262,
      "Py_s": 2263,
      "documentation ": 2264,
      "Exception": 2265,
      "ordin": 2266,
      "(x": 2267,
      "s:": 2268,
      "aclas": 2269,
      "add ": 2270,
      "debugg": 2271,
      "Example": 2272,
      "Key": 2273,
      "er to ": 2274,
      "() ,": 2275,
      "amb": 2276,
      "if it ": 2277,
      "$ ": 2278,
      "8 ": 2279,
      "Ti": 2280,
      "boo": 2281,
      ". This is ": 2282,
      "allows ": 2283,
      "larg": 2284,
      "lic ": 2285,
      "condi": 2286,
      "strings ": 2287,
      "operator": 2288,
      "range(": 2289,
      "SSL": 2290,
      "(*": 2291,
      "' ,'": 2292,
      "set to ": 2293,
      "own ": 2294,
      "[0": 2295,
      "present": 2296,
      "__main": 2297,
      "create_": 2298,
      "Not": 2299,
      "handle ": 2300,
      "sets ": 2301,
      "program ": 2302,
      "regular ": 2303,
      "size_t ": 2304,
      "associated ": 2305,
      "New reference": 2306,
      "s; ": 2307,
      "mapping ": 2308,
      "XML": 2309,
      "- Return value: New reference": 2310,
      "ie": 2311,
      "ily ": 2312,
      "ed_": 2313,
      "Object ": 2314,
      "box": 2315,
      "mark": 2316,
      "rom": 2317,
      "() function": 2318,
      "type, ": 2319,
      "set of ": 2320,
      "currently ": 2321,
      "help ": 2322,
      "possib": 2323,
      "most recent ": 2324,
      "\\x": 2325,
      "_M": 2326,
      "specify": 2327,
      "raises ": 2328,
      "List": 2329,
      "all the ": 2330,
      "failure": 2331,
      "void ": 2332,
      "Note\n": 2333,
      "cri": 2334,
      "ing and ": 2335,
      "lay ": 2336,
      "flags ": 2337,
      "bitr": 2338,
      "200": 2339,
      "ear ": 2340,
      "l\n": 2341,
      "- P": 2342,
      "- exception ": 2343,
      "active ": 2344,
      "value of ": 2345,
      "doesnât ": 2346,
      "Doc": 2347,
      "TL": 2348,
      "than": 2349,
      "reate ": 2350,
      "unit": 2351,
      "combin": 2352,
      "====": 2353,
      "contain ": 2354,
      "Set": 2355,
      "donât ": 2356,
      "open ": 2357,
      "object, ": 2358,
      "similar ": 2359,
      "Mem": 2360,
      "dit": 2361,
      "this": 2362,
      "attemp": 2363,
      "divi": 2364,
      "that is ": 2365,
      "transp": 2366,
      "behavior ": 2367,
      "You can ": 2368,
      "appropri": 2369,
      "break": 2370,
      "Imp": 2371,
      "arbitr": 2372,
      "sty": 2373,
      "pass ": 2374,
      "inser": 2375,
      "datab": 2376,
      "seri": 2377,
      "prefi": 2378,
      "package": 2379,
      ". See ": 2380,
      "word": 2381,
      "used for ": 2382,
      "implement ": 2383,
      "script ": 2384,
      "custom ": 2385,
      "Message ": 2386,
      "Lib/": 2387,
      "Flag": 2388,
      "a string ": 2389,
      "files ": 2390,
      "filename ": 2391,
      "allow ": 2392,
      "copy ": 2393,
      "Windows ": 2394,
      "Handler ": 2395,
      "1\n": 2396,
      "FL": 2397,
      "TY": 2398,
      "done ": 2399,
      "environment": 2400,
      "after the ": 2401,
      "ek": 2402,
      "tz": 2403,
      "Context": 2404,
      "5.": 2405,
      "led ": 2406,
      "map": 2407,
      "Traceback": 2408,
      "implementation": 2409,
      "Deprecated ": 2410,
      "socket.": 2411,
      "TE": 2412,
      "], ": 2413,
      "tre": 2414,
      "escap": 2415,
      "tical ": 2416,
      "group ": 2417,
      "Writ": 2418,
      "found ": 2419,
      "might ": 2420,
      "sk": 2421,
      "iterator ": 2422,
      "perform": 2423,
      "contains ": 2424,
      "address ": 2425,
      "': '": 2426,
      "internal ": 2427,
      "original ": 2428,
      "rather than ": 2429,
      "/\n": 2430,
      "split": 2431,
      "dict ": 2432,
      "Unix ": 2433,
      "client": 2434,
      ": Added the ": 2435,
      "tkinter": 2436,
      "Enum": 2437,
      "ing.\n": 2438,
      "action ": 2439,
      "not\n": 2440,
      "OR ": 2441,
      "(1": 2442,
      "KE": 2443,
      "below": 2444,
      "ssl": 2445,
      "finaliz": 2446,
      "Option": 2447,
      ".This ": 2448,
      "0\n": 2449,
      "sli": 2450,
      "sure ": 2451,
      ", and": 2452,
      "til ": 2453,
      "param": 2454,
      "characters ": 2455,
      "HTTP ": 2456,
      "t, ": 2457,
      "        self.": 2458,
      "also be ": 2459,
      "REF": 2460,
      "ical ": 2461,
      "they are ": 2462,
      "child ": 2463,
      "running ": 2464,
      "tle ": 2465,
      "    return ": 2466,
      "cook": 2467,
      "__(self, ": 2468,
      "change ": 2469,
      "custom": 2470,
      "through ": 2471,
      "Col": 2472,
      "an instance ": 2473,
      "ade ": 2474,
      "with\n": 2475,
      "try ": 2476,
      "If you ": 2477,
      "sett": 2478,
      "where the ": 2479,
      "aw": 2480,
      "await": 2481,
      "over ": 2482,
      "simp": 2483,
      "iterable ": 2484,
      "right ": 2485,
      "above ": 2486,
      "ow ": 2487,
      "ves ": 2488,
      "org": 2489,
      "side": 2490,
      "verbo": 2491,
      "String": 2492,
      "6.": 2493,
      "_name": 2494,
      "rt": 2495,
      "  -\n": 2496,
      "- Re": 2497,
      "gra": 2498,
      "mach": 2499,
      "source": 2500,
      "ish": 2501,
      "index ": 2502,
      "length": 2503,
      "instead of ": 2504,
      "equal ": 2505,
      "token": 2506,
      "Ac": 2507,
      "Iter": 2508,
      "the following ": 2509,
      "codec": 2510,
      "have a ": 2511,
      "UTF-8": 2512,
      "TR": 2513,
      "re.": 2514,
      "colum": 2515,
      "relative ": 2516,
      "Res": 2517,
      "s)": 2518,
      "zip": 2519,
      ") |\n": 2520,
      "ere are ": 2521,
      "position": 2522,
      "namespace ": 2523,
      "ID ": 2524,
      "free": 2525,
      "as an ": 2526,
      "opt": 2527,
      "  - S": 2528,
      "by\n": 2529,
      "s. This ": 2530,
      "down": 2531,
      "place": 2532,
      "access ": 2533,
      "strict": 2534,
      "control ": 2535,
      "macro": 2536,
      "xml.": 2537,
      "three ": 2538,
      "ance ": 2539,
      "itâs ": 2540,
      "func ": 2541,
      " is a ": 2542,
      "join": 2543,
      "Att": 2544,
      "ically ": 2545,
      "next ": 2546,
      "aces ": 2547,
      "scre": 2548,
      "specific": 2549,
      "messages ": 2550,
      ":>>> ": 2551,
      "])Â¶\n": 2552,
      "ber": 2553,
      "enable": 2554,
      "resol": 2555,
      "repr": 2556,
      "cance": 2557,
      "sequence": 2558,
      "Dict": 2559,
      "Argument": 2560,
      "machin": 2561,
      "ive ": 2562,
      "an object ": 2563,
      "Sequen": 2564,
      "ong ": 2565,
      "count ": 2566,
      "must be a ": 2567,
      "request ": 2568,
      "_P": 2569,
      "ant": 2570,
      "simple ": 2571,
      "ute ": 2572,
      "parse_": 2573,
      "ffici": 2574,
      "Linu": 2575,
      "gre": 2576,
      "for more ": 2577,
      "signal ": 2578,
      "frame ": 2579,
      "based ": 2580,
      "else": 2581,
      "():\n": 2582,
      "encoded ": 2583,
      "block ": 2584,
      "collection": 2585,
      "modifi": 2586,
      "OP": 2587,
      "cr": 2588,
      "valid": 2589,
      "select": 2590,
      "literal": 2591,
      "comparis": 2592,
      "y_": 2593,
      "of the\n": 2594,
      "immedi": 2595,
      "clear": 2596,
      "types.": 2597,
      "prefix ": 2598,
      "Rec": 2599,
      "go": 2600,
      "sq": 2601,
      "on\n": 2602,
      "direc": 2603,
      ">>> print(": 2604,
      "stack ": 2605,
      "parser.add_": 2606,
      "let": 2607,
      "creat": 2608,
      "|---|---": 2609,
      ".py ": 2610,
      "Num": 2611,
      "alo": 2612,
      ". For ": 2613,
      "es a ": 2614,
      "abstr": 2615,
      "event loop": 2616,
      "alias ": 2617,
      "7 ": 2618,
      ") is ": 2619,
      " is not ": 2620,
      "there are ": 2621,
      "Custom": 2622,
      "([": 2623,
      ", so ": 2624,
      "intro": 2625,
      "one of the ": 2626,
      "execution ": 2627,
      "Long": 2628,
      "ecti": 2629,
      "() .": 2630,
      "retri": 2631,
      "take ": 2632,
      "positional ": 2633,
      "er.\n": 2634,
      ", '": 2635,
      "iterator": 2636,
      "supported ": 2637,
      "Load": 2638,
      "13.\n": 2639,
      "range ": 2640,
      "See also\n": 2641,
      "Py_ssize_t ": 2642,
      "'), ": 2643,
      "Source ": 2644,
      "refer": 2645,
      "install ": 2646,
      "define ": 2647,
      "containing the ": 2648,
      "invok": 2649,
      "(Py": 2650,
      "basi": 2651,
      "pe ": 2652,
      "as w": 2653,
      "if you ": 2654,
      "Logg": 2655,
      "pointer ": 2656,
      "(or ": 2657,
      "rup": 2658,
      ", PyObject *": 2659,
      "lib ": 2660,
      "audit": 2661,
      "generator": 2662,
      "datetime.": 2663,
      "most recent call ": 2664,
      "er\n": 2665,
      "Error: ": 2666,
      "target ": 2667,
      "-  Part of the Stable ABI.": 2668,
      "We": 2669,
      "pur": 2670,
      "exact": 2671,
      "keyword": 2672,
      "ted": 2673,
      "until ": 2674,
      "shared ": 2675,
      "explicitly ": 2676,
      "memory": 2677,
      "extension": 2678,
      "several ": 2679,
      "__main__": 2680,
      "Attribu": 2681,
      "{'": 2682,
      "virt": 2683,
      "which is ": 2684,
      "setting ": 2685,
      "repe": 2686,
      "imum ": 2687,
      "every ": 2688,
      "),\n": 2689,
      "3.\n": 2690,
      "< ": 2691,
      "prox": 2692,
      "  - Return the ": 2693,
      "') >>> ": 2694,
      " (most recent call ": 2695,
      "complex ": 2696,
      "offset ": 2697,
      "/* ": 2698,
      "ures": 2699,
      "util": 2700,
      "recomm": 2701,
      "tific": 2702,
      "tra": 2703,
      "ve_": 2704,
      "lock ": 2705,
      "has a ": 2706,
      "configure": 2707,
      "len(": 2708,
      "check ": 2709,
      "Sub": 2710,
      "FLAG": 2711,
      "CPython ": 2712,
      "Sy": 2713,
      "hex": 2714,
      "tab": 2715,
      "eno": 2716,
      "altern": 2717,
      "ed and ": 2718,
      ". A ": 2719,
      "code: ": 2720,
      "directory": 2721,
      "Proces": 2722,
      "offset": 2723,
      "whose ": 2724,
      "receiv": 2725,
      "- Return value: New reference. ": 2726,
      "Traceback (most recent call ": 2727,
      "Each ": 2728,
      ", you ": 2729,
      "timeout": 2730,
      "print('": 2731,
      "-> ": 2732,
      "S_": 2733,
      "await ": 2734,
      "ip ": 2735,
      ", it is ": 2736,
      "det": 2737,
      "tain": 2738,
      "date ": 2739,
      "build ": 2740,
      "omit": 2741,
      "position ": 2742,
      "required ": 2743,
      "constructor ": 2744,
      "release": 2745,
      "left ": 2746,
      "Traceback (most recent call last": 2747,
      "85": 2748,
      "All ": 2749,
      "D_": 2750,
      "into the ": 2751,
      "enter": 2752,
      "Chec": 2753,
      "ve\n": 2754,
      "chronous ": 2755,
      "arbitrary ": 2756,
      ".get": 2757,
      "recur": 2758,
      "references ": 2759,
      "callback ": 2760,
      "digit": 2761,
      "ACK": 2762,
      "auditing ": 2763,
      "/ ": 2764,
      "Fin": 2765,
      "ans": 2766,
      "an empty ": 2767,
      "very ": 2768,
      "takes ": 2769,
      "pair": 2770,
      "appli": 2771,
      "guar": 2772,
      "used by ": 2773,
      "mplement": 2774,
      "never ": 2775,
      "ate the ": 2776,
      "argument is ": 2777,
      "full ": 2778,
      ".py\n": 2779,
      "urllib.": 2780,
      "differen": 2781,
      "arch ": 2782,
      "ve the ": 2783,
      "tkinter.": 2784,
      "7.": 2785,
      "EC": 2786,
      "gori": 2787,
      "ante": 2788,
      "descrip": 2789,
      "options ": 2790,
      "symlink": 2791,
      "Time": 2792,
      "34": 2793,
      "6: ": 2794,
      "cy": 2795,
      "args ": 2796,
      "attach": 2797,
      "messag": 2798,
      "global": 2799,
      "Que": 2800,
      "US": 2801,
      "made ": 2802,
      "s)\n": 2803,
      "reas": 2804,
      "es are ": 2805,
      "when": 2806,
      "suit": 2807,
      "butt": 2808,
      "from_": 2809,
      "print(\"": 2810,
      "importlib.": 2811,
      "replace": 2812,
      "ValueError ": 2813,
      "-line ": 2814,
      "=True": 2815,
      "_f": 2816,
      "decimal ": 2817,
      "e. ": 2818,
      "() and ": 2819,
      "proble": 2820,
      ">>> import ": 2821,
      "begin": 2822,
      "ation of the ": 2823,
      "...         ": 2824,
      "sign ": 2825,
      "Otherwise": 2826,
      "Ser": 2827,
      "ey ": 2828,
      "incre": 2829,
      "leg": 2830,
      "a single ": 2831,
      "usually ": 2832,
      "ally": 2833,
      "PyConfig": 2834,
      "returns": 2835,
      "ed to be ": 2836,
      "email.": 2837,
      "Deprecated since version 3.": 2838,
      "(see ": 2839,
      "9 ": 2840,
      "ep ": 2841,
      "sed": 2842,
      "log ": 2843,
      "_Set": 2844,
      "way to ": 2845,
      "view": 2846,
      "Function": 2847,
      "POSI": 2848,
      "guarante": 2849,
      "Ev": 2850,
      "tar": 2851,
      "teco": 2852,
      "() function ": 2853,
      "returns the ": 2854,
      "14.\n": 2855,
      "during ": 2856,
      "OL": 2857,
      "dou": 2858,
      "riter": 2859,
      "ately ": 2860,
      "velo": 2861,
      "create a ": 2862,
      "compatibilit": 2863,
      "F_": 2864,
      "year": 2865,
      "or.": 2866,
      "dep": 2867,
      "ently ": 2868,
      "        return ": 2869,
      "able to ": 2870,
      "yield ": 2871,
      "-m ": 2872,
      "2\n": 2873,
      "2.\n": 2874,
      "Or": 2875,
      "per ": 2876,
      "it\n": 2877,
      "ed.": 2878,
      "true": 2879,
      "specify ": 2880,
      "creating ": 2881,
      "subproces": 2882,
      "Inst": 2883,
      "Requ": 2884,
      "errors ": 2885,
      "- Return a ": 2886,
      "connection ": 2887,
      "file descriptor ": 2888,
      "port": 2889,
      ") and ": 2890,
      "es to ": 2891,
      "an auditing ": 2892,
      "In the ": 2893,
      "ly, ": 2894,
      "have been ": 2895,
      "box ": 2896,
      "counter": 2897,
      "New": 2898,
      "Path('": 2899,
      "avoid ": 2900,
      "Dat": 2901,
      "rel": 2902,
      "will\n": 2903,
      "this is ": 2904,
      "ther the ": 2905,
      "purpo": 2906,
      "er, ": 2907,
      "      ": 2908,
      "an error ": 2909,
      "string, ": 2910,
      "processing ": 2911,
      "structure ": 2912,
      "Part of the Stable ABI ": 2913,
      "[1] ": 2914,
      "heap": 2915,
      "mu": 2916,
      "ore ": 2917,
      "ation.\n": 2918,
      "signat": 2919,
      "keyword argument": 2920,
      "Content": 2921,
      "; the ": 2922,
      "BL": 2923,
      "EX": 2924,
      "ok ": 2925,
      "          ": 2926,
      "prog": 2927,
      "typing.": 2928,
      "trac": 2929,
      "preci": 2930,
      "dump": 2931,
      "numeric ": 2932,
      "Implement": 2933,
      "SQ": 2934,
      "men": 2935,
      "using": 2936,
      "used in ": 2937,
      "whit": 2938,
      "ist ": 2939,
      "via ": 2940,
      "times ": 2941,
      "^^": 2942,
      "bl": 2943,
      "into a ": 2944,
      "disc": 2945,
      "ctx": 2946,
      " is the ": 2947,
      "queue": 2948,
      "By default": 2949,
      "Source code: ": 2950,
      "Source code: Lib/": 2951,
      "Tup": 2952,
      "    if ": 2953,
      "ular": 2954,
      "part": 2955,
      "youâ": 2956,
      "before the ": 2957,
      "normal ": 2958,
      "Import": 2959,
      "ge ": 2960,
      "this\n": 2961,
      "then the ": 2962,
      "tic ": 2963,
      "ing-": 2964,
      "fill": 2965,
      "runtime ": 2966,
      "Parame": 2967,
      "operations ": 2968,
      "symbo": 2969,
      "coroutine ": 2970,
      "indent": 2971,
      "an auditing event ": 2972,
      "aff": 2973,
      "cause ": 2974,
      "info ": 2975,
      "remain": 2976,
      "cannot ": 2977,
      "OS ": 2978,
      "foo ": 2979,
      "through": 2980,
      "conveni": 2981,
      "Pre": 2982,
      "PRO": 2983,
      "gar": 2984,
      "ses.": 2985,
      "search ": 2986,
      "absol": 2987,
      "__name": 2988,
      "utf": 2989,
      "results ": 2990,
      "host ": 2991,
      "structure": 2992,
      "there": 2993,
      "True if the ": 2994,
      "root ": 2995,
      "Default": 2996,
      "App": 2997,
      "E_": 2998,
      "next": 2999,
      "enum": 3000,
      "tot": 3001,
      "set the ": 3002,
      "ed by a ": 3003,
      "INF": 3004,
      "lash": 3005,
      "stdin": 3006,
      "member ": 3007,
      "stream ": 3008,
      "effect": 3009,
      "known ": 3010,
      "100": 3011,
      "conc": 3012,
      "class, ": 3013,
      "1, 2, ": 3014,
      "Speci": 3015,
      " '": 3016,
      "3\n": 3017,
      "br": 3018,
      "file.": 3019,
      "float ": 3020,
      "BUG": 3021,
      "ET": 3022,
      "]) ": 3023,
      "ak ": 3024,
      "ced ": 3025,
      "el ": 3026,
      "loc ": 3027,
      "ally, ": 3028,
      "module.\n": 3029,
      "accepts ": 3030,
      "passed to ": 3031,
      "defaults to ": 3032,
      "particular ": 3033,
      "s or ": 3034,
      "rever": 3035,
      "PyErr": 3036,
      "byteco": 3037,
      "lines": 3038,
      "method is ": 3039,
      "when a ": 3040,
      "raised": 3041,
      "constructor": 3042,
      "previous ": 3043,
      "Ele": 3044,
      "hi": 3045,
      "slash": 3046,
      "table ": 3047,
      "al_": 3048,
      "ing of ": 3049,
      "())\n": 3050,
      "process": 3051,
      "directori": 3052,
      "threaded ": 3053,
      "dictionary": 3054,
      "DEBUG": 3055,
      "array": 3056,
      "certific": 3057,
      "/python": 3058,
      "bound ": 3059,
      "once ": 3060,
      ", in ": 3061,
      "encode": 3062,
      "deprec": 3063,
      "ity": 3064,
      "entri": 3065,
      "can be used ": 3066,
      "signed ": 3067,
      "debug": 3068,
      "effect ": 3069,
      "Some ": 3070,
      "child": 3071,
      "instead.\n": 3072,
      "=False, ": 3073,
      "feature": 3074,
      "It is ": 3075,
      "() , ": 3076,
      "ument ": 3077,
      "value of the ": 3078,
      "().\n": 3079,
      ".  It ": 3080,
      "future": 3081,
      "[ ": 3082,
      "titem": 3083,
      "lex": 3084,
      "ing is ": 3085,
      ". When ": 3086,
      "issu": 3087,
      "two": 3088,
      "SSL ": 3089,
      "% ": 3090,
      "My": 3091,
      "table": 3092,
      "ality ": 3093,
      "adat": 3094,
      "Pythonâs ": 3095,
      "DEF": 3096,
      "sur": 3097,
      "ded.\n": 3098,
      "an exception": 3099,
      "part of the ": 3100,
      "| \"": 3101,
      "ation, ": 3102,
      "compile": 3103,
      "suppli": 3104,
      "*/\n": 3105,
      "compon": 3106,
      "errno": 3107,
      "logger ": 3108,
      "descriptor": 3109,
      "syntax ": 3110,
      "appropriate ": 3111,
      "virtual ": 3112,
      "garb": 3113,
      "%(": 3114,
      "Tk ": 3115,
      "again": 3116,
      "expect": 3117,
      "                        ": 3118,
      "assert ": 3119,
      "view ": 3120,
      "whitesp": 3121,
      "ended ": 3122,
      "back ": 3123,
      "consist": 3124,
      "struct ": 3125,
      "negative ": 3126,
      "Decimal('": 3127,
      "gorith": 3128,
      "8.": 3129,
      "Ali": 3130,
      "ES": 3131,
      "ome": 3132,
      "alloc ": 3133,
      "- D": 3134,
      "acqui": 3135,
      "various ": 3136,
      "Supp": 3137,
      "(x, ": 3138,
      "TER": 3139,
      "ed from ": 3140,
      "least ": 3141,
      ": >>> ": 3142,
      "resour": 3143,
      "super": 3144,
      "This is ": 3145,
      "This module ": 3146,
      "Initi": 3147,
      "type of ": 3148,
      "See the ": 3149,
      "parameters ": 3150,
      "parse.": 3151,
      "cooki": 3152,
      "Hel": 3153,
      "load ": 3154,
      "points ": 3155,
      "ector": 3156,
      "Exception ": 3157,
      "File \"": 3158,
      ".Note ": 3159,
      "Ma": 3160,
      "effici": 3161,
      "s/": 3162,
      "exit ": 3163,
      "actual ": 3164,
      "\", line ": 3165,
      "python.": 3166,
      "display ": 3167,
      "false": 3168,
      "Raises an auditing event ": 3169,
      "-specific ": 3170,
      "cm": 3171,
      "hook": 3172,
      "ve, ": 3173,
      "s on ": 3174,
      "const": 3175,
      "pow": 3176,
      "happ": 3177,
      "deriv": 3178,
      "stdout": 3179,
      "means that ": 3180,
      "definition": 3181,
      "Part of the Stable ABI since version 3.": 3182,
      "23": 3183,
      "Au": 3184,
      "PA": 3185,
      "])\n": 3186,
      "_module": 3187,
      "lamb": 3188,
      "entic": 3189,
      "ement ": 3190,
      "directly": 3191,
      "pub": 3192,
      "was ad": 3193,
      "sequence of ": 3194,
      "override ": 3195,
      ">= ": 3196,
      "Be": 3197,
      "Using ": 3198,
      "[-": 3199,
      "tu": 3200,
      "algorith": 3201,
      "sive ": 3202,
      "cho": 3203,
      "name is ": 3204,
      "m_": 3205,
      "task ": 3206,
      "this function ": 3207,
      "Returns ": 3208,
      "has no ": 3209,
      "packag": 3210,
      "meaning ": 3211,
      "day ": 3212,
      "control": 3213,
      "mutable ": 3214,
      "Method": 3215,
      "->": 3216,
      "0) ": 3217,
      "56": 3218,
      "MIM": 3219,
      "WAR": 3220,
      "amp": 3221,
      "bound": 3222,
      "pen": 3223,
      "ward ": 3224,
      "returned by ": 3225,
      "will not ": 3226,
      "().": 3227,
      "value=": 3228,
      "write": 3229,
      "locale ": 3230,
      "debug ": 3231,
      "called": 3232,
      "192.": 3233,
      "']\n": 3234,
      "); ": 3235,
      "Var": 3236,
      "bit ": 3237,
      "ifi": 3238,
      "rule": 3239,
      "sen": 3240,
      "ten": 3241,
      "insp": 3242,
      "d the ": 3243,
      "math": 3244,
      "id='": 3245,
      "library": 3246,
      "a, b": 3247,
      "-0": 3248,
      "is to ": 3249,
      "top ": 3250,
      "coordin": 3251,
      "mpres": 3252,
      "and a ": 3253,
      "in this ": 3254,
      "list(": 3255,
      "Ref": 3256,
      "Unix": 3257,
      "): ... ": 3258,
      "metadat": 3259,
      "serializ": 3260,
      ").  ": 3261,
      "sof": 3262,
      "though ": 3263,
      "        # ": 3264,
      "specified, ": 3265,
      "Exec": 3266,
      "asynchronous ": 3267,
      "support for ": 3268,
      "datetime ": 3269,
      "TYPE": 3270,
      "(obj": 3271,
      "<= ": 3272,
      "Com": 3273,
      "Man": 3274,
      ".  In ": 3275,
      "command line ": 3276,
      "connect": 3277,
      "Traceback (most recent call last):\n": 3278,
      "dro": 3279,
      ". For example": 3280,
      "er than ": 3281,
      "usage ": 3282,
      "callable": 3283,
      "raw": 3284,
      "ation\n": 3285,
      "Object *": 3286,
      "place ": 3287,
      "OCK": 3288,
      "24": 3289,
      "?Â¶\n": 3290,
      "Per": 3291,
      "led": 3292,
      "ses": 3293,
      "of an ": 3294,
      "Returns the ": 3295,
      "ever ": 3296,
      "possible to ": 3297,
      "Warning ": 3298,
      "4.\n": 3299,
      "EM": 3300,
      "User": 3301,
      "y=": 3302,
      "â, ": 3303,
      "erv": 3304,
      "site": 3305,
      "froz": 3306,
      "nest": 3307,
      "decl": 3308,
      "support.": 3309,
      "there is no ": 3310,
      "if\n": 3311,
      "Rais": 3312,
      "stric": 3313,
      "XML ": 3314,
      "timiz": 3315,
      "network ": 3316,
      "sqlit": 3317,
      "-threaded ": 3318,
      "Get": 3319,
      "thir": 3320,
      "esÂ¶\n": 3321,
      "of these ": 3322,
      ">>> class ": 3323,
      "tain ": 3324,
      "emb": 3325,
      "mock ": 3326,
      "complete": 3327,
      "Check": 3328,
      "I/": 3329,
      "LI": 3330,
      "Match": 3331,
      "ba": 3332,
      "inside ": 3333,
      "look ": 3334,
      "usr": 3335,
      "PyUnicode": 3336,
      "abc": 3337,
      "quer": 3338,
      "parti": 3339,
      "prece": 3340,
      "logger": 3341,
      "12.\n": 3342,
      "client ": 3343,
      "setting": 3344,
      "/usr": 3345,
      "bi": 3346,
      ", as ": 3347,
      ". S": 3348,
      "accor": 3349,
      "ceed": 3350,
      "s, but ": 3351,
      "added ": 3352,
      "return value ": 3353,
      "complete ": 3354,
      "width": 3355,
      "e.g.": 3356,
      "style ": 3357,
      "introdu": 3358,
      "e.\n": 3359,
      "ni": 3360,
      "war": 3361,
      "er(": 3362,
      "er is ": 3363,
      "makes ": 3364,
      "need ": 3365,
      "expected ": 3366,
      "vely ": 3367,
      "ENT": 3368,
      "resulting ": 3369,
      ".  If the ": 3370,
      "**kwargs": 3371,
      "parser.add_argument": 3372,
      "Tuple": 3373,
      "CP": 3374,
      "Fut": 3375,
      "Gr": 3376,
      "ateg": 3377,
      "comput": 3378,
      "' >>> ": 3379,
      "Addres": 3380,
      "operating ": 3381,
      "s that are ": 3382,
      "packages ": 3383,
      "Frame": 3384,
      "crip": 3385,
      "ding the ": 3386,
      "isol": 3387,
      "simple": 3388,
      "exclu": 3389,
      "itself ": 3390,
      "call_": 3391,
      "que ": 3392,
      "object. ": 3393,
      "data, ": 3394,
      "disable": 3395,
      "future ": 3396,
      "Bytes": 3397,
      "CH": 3398,
      "ld": 3399,
      "comment": 3400,
      "type_": 3401,
      "generic ": 3402,
      "collections.": 3403,
      "WAS": 3404,
      "space": 3405,
      "print ": 3406,
      "Conver": 3407,
      "objects are ": 3408,
      "fields ": 3409,
      "hash ": 3410,
      "assert": 3411,
      "given, ": 3412,
      "policy ": 3413,
      "- Return value: New reference. Part of the Stable ABI.": 3414,
      "garbage ": 3415,
      "\": ": 3416,
      "::": 3417,
      "ed from the ": 3418,
      "ing_": 3419,
      "it.\n": 3420,
      "copi": 3421,
      "curses.": 3422,
      "arguments are ": 3423,
      "actually ": 3424,
      "passed to the ": 3425,
      "constant": 3426,
      "than the ": 3427,
      "Initializ": 3428,
      "30": 3429,
      "wise ": 3430,
      "ed, the ": 3431,
      "tak": 3432,
      "with argument": 3433,
      "addr": 3434,
      "s to be ": 3435,
      "Parser ": 3436,
      "queue ": 3437,
      "ObjectsÂ¶\n": 3438,
      "database ": 3439,
      "80": 3440,
      "ED": 3441,
      "or'": 3442,
      ", not ": 3443,
      "until": 3444,
      "() or": 3445,
      "optimiz": 3446,
      "pointer": 3447,
      "passing ": 3448,
      "end of the ": 3449,
      "asyncio ": 3450,
      "definition ": 3451,
      "With": 3452,
      "VER": 3453,
      "[\"": 3454,
      "ble ": 3455,
      "t of ": 3456,
      "and return ": 3457,
      "() | ": 3458,
      "ed in a ": 3459,
      "this method ": 3460,
      "runtime": 3461,
      "Unix, ": 3462,
      "hello": 3463,
      "empty": 3464,
      "__() method": 3465,
      "Proto": 3466,
      "provides a ": 3467,
      "platform ": 3468,
      "interface": 3469,
      "equivalent to ": 3470,
      "how to ": 3471,
      "random": 3472,
      "UTF-8 ": 3473,
      "Linux ": 3474,
      "sqlite": 3475,
      "B ": 3476,
      "sor ": 3477,
      "tx": 3478,
      "ted to ": 3479,
      ", /)Â¶\n": 3480,
      "as_": 3481,
      "typically ": 3482,
      "true, ": 3483,
      "if a ": 3484,
      "file\n": 3485,
      "set to": 3486,
      "11.\n": 3487,
      "tempor": 3488,
      "ability ": 3489,
      "warning ": 3490,
      "tools.": 3491,
      "echan": 3492,
      "ing-point ": 3493,
      "Asyn": 3494,
      "t to ": 3495,
      "in the\n": 3496,
      "adv": 3497,
      "        if ": 3498,
      "interactive ": 3499,
      "Int": 3500,
      "True, ": 3501,
      "default_": 3502,
      "fully ": 3503,
      "See also ": 3504,
      "normally ": 3505,
      "depending ": 3506,
      "factory ": 3507,
      "Grou": 3508,
      "86": 3509,
      "Item": 3510,
      "cau": 3511,
      "s__": 3512,
      "w.": 3513,
      "usage": 3514,
      "else ": 3515,
      "shell": 3516,
      "Star": 3517,
      "When the ": 3518,
      "means ": 3519,
      "registr": 3520,
      "slot": 3521,
      "pickle": 3522,
      "namespace": 3523,
      "With ": 3524,
      "condition": 3525,
      "errno.": 3526,
      ",__": 3527,
      "TION": 3528,
      "easi": 3529,
      "fam": 3530,
      "s as ": 3531,
      ", then ": 3532,
      "       ": 3533,
      "lead": 3534,
      "or more ": 3535,
      "file is ": 3536,
      "processing": 3537,
      "blocking ": 3538,
      "safe ": 3539,
      "python -m ": 3540,
      "Content-": 3541,
      "math.": 3542,
      "WASI": 3543,
      ".get_": 3544,
      "CON": 3545,
      "upp": 3546,
      "âs\n": 3547,
      "see the ": 3548,
      "- An ": 3549,
      "on succes": 3550,
      ">>> from ": 3551,
      "return_": 3552,
      "prev": 3553,
      "module is ": 3554,
      "use\n": 3555,
      "no longer ": 3556,
      "plac": 3557,
      "generated ": 3558,
      "STACK": 3559,
      "separate ": 3560,
      "environment variable": 3561,
      "compatible ": 3562,
      "test.support.": 3563,
      "for example, ": 3564,
      "IPv4": 3565,
      "As ": 3566,
      "mechan": 3567,
      ". On ": 3568,
      "logi": 3569,
      "subjec": 3570,
      "value\n": 3571,
      "sequences ": 3572,
      "calc": 3573,
      "Open": 3574,
      "tuple of ": 3575,
      "uses the ": 3576,
      "(the default": 3577,
      "/usr/": 3578,
      "7.\n": 3579,
      "Pure": 3580,
      "d(": 3581,
      "how": 3582,
      "t a ": 3583,
      "report": 3584,
      "aries ": 3585,
      "ly\n": 3586,
      "(self):\n": 3587,
      "safet": 3588,
      "considered ": 3589,
      "However, ": 3590,
      "possible": 3591,
      "Request": 3592,
      "Cook": 3593,
      "dd": 3594,
      "  File \"": 3595,
      "once": 3596,
      ") â ": 3597,
      "extern": 3598,
      "creates ": 3599,
      "Connec": 3600,
      "correct": 3601,
      "Stream": 3602,
      ". It is ": 3603,
      "close ": 3604,
      "Name(": 3605,
      "information about ": 3606,
      "Buffer": 3607,
      "which the ": 3608,
      "necessary ": 3609,
      "graph": 3610,
      "26": 3611,
      "3: ": 3612,
      "Create ": 3613,
      "F ": 3614,
      "Pas": 3615,
      "port ": 3616,
      "- If ": 3617,
      "  - A ": 3618,
      "complex": 3619,
      "allocated ": 3620,
      "digits ": 3621,
      "async def ": 3622,
      "Base ": 3623,
      "CL": 3624,
      "sle": 3625,
      "stic": 3626,
      "track": 3627,
      "raw ": 3628,
      "appear ": 3629,
      "respecti": 3630,
      "ErrorÂ¶\n": 3631,
      "Format": 3632,
      "Queue": 3633,
      "For": 3634,
      "_N": 3635,
      "roun": 3636,
      "invalid ": 3637,
      ") .\n": 3638,
      "resent ": 3639,
      "for detail": 3640,
      "pol": 3641,
      "processes ": 3642,
      "licit ": 3643,
      "single": 3644,
      "TypeError ": 3645,
      "remote ": 3646,
      "prim": 3647,
      "slot ": 3648,
      "cases ": 3649,
      "Buil": 3650,
      "random ": 3651,
      "cancel": 3652,
      "Sequence": 3653,
      "as well ": 3654,
      "ctx=": 3655,
      "(n": 3656,
      "fur": 3657,
      "st_": 3658,
      "node ": 3659,
      ": ... ": 3660,
      "object.__": 3661,
      "represent ": 3662,
      "10, ": 3663,
      "Python\n": 3664,
      "positive ": 3665,
      "PATH": 3666,
      "8, ": 3667,
      "stamp": 3668,
      "This function ": 3669,
      "Log": 3670,
      "clean": 3671,
      "subclass of ": 3672,
      "://": 3673,
      "AUL": 3674,
      "CREF": 3675,
      "EÂ¶\n": 3676,
      "How ": 3677,
      "Loc": 3678,
      "instruc": 3679,
      "asci": 3680,
      "ill": 3681,
      "itor": 3682,
      "in range(": 3683,
      "proj": 3684,
      "your": 3685,
      "lower": 3686,
      "instanti": 3687,
      "pass\n": 3688,
      "threads ": 3689,
      "included ": 3690,
      "programm": 3691,
      "13: ": 3692,
      "compression ": 3693,
      " ,": 3694,
      "ning ": 3695,
      "- T": 3696,
      "conversion ": 3697,
      "only be ": 3698,
      "writing ": 3699,
      "using a ": 3700,
      "would be ": 3701,
      "getitem": 3702,
      "described ": 3703,
      "decorator": 3704,
      "dividu": 3705,
      "KEY": 3706,
      "(e.g. ": 3707,
      "reco": 3708,
      "on failure": 3709,
      "conf": 3710,
      "promp": 3711,
      "space ": 3712,
      "= '": 3713,
      "Init": 3714,
      "Windows, ": 3715,
      "max_": 3716,
      "equivalent to": 3717,
      "Parameter": 3718,
      "absolute ": 3719,
      "Element": 3720,
      "according ": 3721,
      "UP": 3722,
      "ases ": 3723,
      "b_": 3724,
      "ner ": 3725,
      "trace": 3726,
      "use a ": 3727,
      "Windows": 3728,
      "manager": 3729,
      "True\n": 3730,
      "above": 3731,
      "equal": 3732,
      "constants ": 3733,
      "alog": 3734,
      "abstract ": 3735,
      "pag": 3736,
      "s()Â¶\n": 3737,
      "step": 3738,
      "ulti": 3739,
      "dataclas": 3740,
      "file, ": 3741,
      "000": 3742,
      "one of ": 3743,
      "flush": 3744,
      "starting ": 3745,
      "values are ": 3746,
      "builtin": 3747,
      "indicates ": 3748,
      "_From": 3749,
      "parent ": 3750,
      "mechanis": 3751,
      "p_": 3752,
      "s__ ": 3753,
      "itself": 3754,
      "make": 3755,
      "ate\n": 3756,
      "handlers ": 3757,
      "document ": 3758,
      "maximum ": 3759,
      "ArgumentParser": 3760,
      "7, ": 3761,
      "s[": 3762,
      "squ": 3763,
      ") | ": 3764,
      "abc.": 3765,
      "= [": 3766,
      "can also be ": 3767,
      "path-like ": 3768,
      "key, ": 3769,
      "finish": 3770,
      "can\n": 3771,
      "produc": 3772,
      "exactly ": 3773,
      "6, ": 3774,
      "HE": 3775,
      "IP ": 3776,
      "We ": 3777,
      "Wor": 3778,
      "stm": 3779,
      "deprecated ": 3780,
      "PyLong": 3781,
      "an un": 3782,
      "| '": 3783,
      "by default": 3784,
      "object\n": 3785,
      "ERR": 3786,
      "working ": 3787,
      "items ": 3788,
      "limit ": 3789,
      "Posi": 3790,
      "URL": 3791,
      "Some": 3792,
      "Attribute": 3793,
      "DEFAUL": 3794,
      "8.\n": 3795,
      "MA": 3796,
      "Mapp": 3797,
      "Name ": 3798,
      "rc": 3799,
      "individu": 3800,
      "reach": 3801,
      "seman": 3802,
      "parsing ": 3803,
      "isnât ": 3804,
      "floating-point ": 3805,
      "something ": 3806,
      "traceback ": 3807,
      "Cur": 3808,
      "RP": 3809,
      "io": 3810,
      "ward": 3811,
      ". For example, ": 3812,
      "desi": 3813,
      "There are ": 3814,
      "int, ": 3815,
      "word ": 3816,
      "exception is ": 3817,
      "Enco": 3818,
      "context manager ": 3819,
      "present ": 3820,
      "Runtime": 3821,
      "-bit ": 3822,
      "ously ": 3823,
      "component": 3824,
      "))": 3825,
      "Mon": 3826,
      "hist": 3827,
      "redu": 3828,
      "- errno.": 3829,
      "exact ": 3830,
      "cla": 3831,
      "s are not ": 3832,
      "Py_TP": 3833,
      "True if ": 3834,
      "collect": 3835,
      "OM ": 3836,
      "file descriptor": 3837,
      "bytecode ": 3838,
      "10 ": 3839,
      "Dic": 3840,
      "_RE": 3841,
      "er_": 3842,
      "stem": 3843,
      "mak": 3844,
      "domain": 3845,
      ">>> # ": 3846,
      "shap": 3847,
      "build": 3848,
      "initial ": 3849,
      "Module ": 3850,
      "behavior": 3851,
      "void": 3852,
      "which\n": 3853,
      "customiz": 3854,
      "reason": 3855,
      "respectivel": 3856,
      "sent ": 3857,
      "ving ": 3858,
      "s on the ": 3859,
      "assum": 3860,
      "for each ": 3861,
      "path, ": 3862,
      "more than ": 3863,
      "is the same ": 3864,
      "comparison ": 3865,
      "(2": 3866,
      "CR": 3867,
      "ore": 3868,
      "alle": 3869,
      "within the ": 3870,
      "s, or ": 3871,
      "()) ": 3872,
      "ynam": 3873,
      "Lock": 3874,
      "elements ": 3875,
      "command-line ": 3876,
      "unicode": 3877,
      "[1] |\n": 3878,
      "f.": 3879,
      "same": 3880,
      "to_": 3881,
      "devi": 3882,
      "concurren": 3883,
      "() will ": 3884,
      "appear": 3885,
      "color ": 3886,
      "new_": 3887,
      "bytes-like ": 3888,
      "TestC": 3889,
      "=False)Â¶\n": 3890,
      "Mock ": 3891,
      "SQL": 3892,
      "parser.add_argument('": 3893,
      "calcul": 3894,
      "Py_TPFLAG": 3895,
      "1. ": 3896,
      "? ": 3897,
      "free ": 3898,
      "ot": 3899,
      "sâ ": 3900,
      "- sys.": 3901,
      "etc": 3902,
      "__(": 3903,
      "objectâs ": 3904,
      "function.\n": 3905,
      "used.\n": 3906,
      "from\n": 3907,
      "sched": 3908,
      "treated ": 3909,
      "immediately ": 3910,
      "N ": 3911,
      "an integer ": 3912,
      "not WASI": 3913,
      "version of ": 3914,
      "if no ": 3915,
      "getattr": 3916,
      "matches ": 3917,
      "user-": 3918,
      "pickl": 3919,
      "email ": 3920,
      "~~~~": 3921,
      "column": 3922,
      "Hello": 3923,
      "Manag": 3924,
      "2: ": 3925,
      "BS": 3926,
      "Text": 3927,
      "Up": 3928,
      "at least ": 3929,
      "() , but ": 3930,
      "name)Â¶\n": 3931,
      "', ctx=": 3932,
      "Add ": 3933,
      "path.": 3934,
      "p = ": 3935,
      "ABC": 3936,
      "other\n": 3937,
      "OSError ": 3938,
      "decode": 3939,
      "decompres": 3940,
      "converted to ": 3941,
      "pickle ": 3942,
      "Class": 3943,
      "  - Return a ": 3944,
      "TLS": 3945,
      "screen": 3946,
      "declar": 3947,
      "0)\n": 3948,
      ">\", line ": 3949,
      "IF": 3950,
      "Multi": 3951,
      "No ": 3952,
      "\\\\": 3953,
      "f\n": 3954,
      "fall": 3955,
      "writer": 3956,
      "real ": 3957,
      "around ": 3958,
      "ed (": 3959,
      "that it ": 3960,
      "  - Re": 3961,
      "returned": 3962,
      "s.Added in version 3.": 3963,
      "sha": 3964,
      "Returns a ": 3965,
      "; it ": 3966,
      "Stat": 3967,
      ". If you ": 3968,
      "week": 3969,
      "priv": 3970,
      "false ": 3971,
      "authentic": 3972,
      "great": 3973,
      "much ": 3974,
      "').": 3975,
      "Net": 3976,
      "cn": 3977,
      "dt.": 3978,
      "gri": 3979,
      "hen": 3980,
      "s=None, ": 3981,
      "s to the ": 3982,
      "atel": 3983,
      ". (": 3984,
      "row ": 3985,
      "unk": 3986,
      "argparse.": 3987,
      "Constan": 3988,
      "imilar ": 3989,
      "response": 3990,
      "parser.parse_": 3991,
      "right": 3992,
      "bytearray ": 3993,
      "https:": 3994,
      "www.": 3995,
      "utf-8": 3996,
      "inspect": 3997,
      "Name(id='": 3998,
      "https://": 3999,
      "32 ": 4000,
      "LE ": 4001,
      "SIG": 4002,
      "Us": 4003,
      "exc": 4004,
      "expo": 4005,
      "PyMem": 4006,
      "trail": 4007,
      "module, ": 4008,
      "logger.": 4009,
      "__() method ": 4010,
      "variables ": 4011,
      "addition ": 4012,
      "my_": 4013,
      "Point": 4014,
      "only the ": 4015,
      "cache ": 4016,
      "ING ": 4017,
      "transport": 4018,
      "Use": 4019,
      ", *": 4020,
      "develo": 4021,
      "often ": 4022,
      "3.14": 4023,
      "old ": 4024,
      "filter ": 4025,
      "objects.\n": 4026,
      "which are ": 4027,
      "State": 4028,
      "12: ": 4029,
      "calend": 4030,
      "(PyObject *o": 4031,
      "PEP 5": 4032,
      "base class ": 4033,
      "-  Part of the Stable ABI since version 3.": 4034,
      "One ": 4035,
      "scop": 4036,
      "side_": 4037,
      "__name__ ": 4038,
      "until the ": 4039,
      "further ": 4040,
      ": the ": 4041,
      "From": 4042,
      "SON": 4043,
      "x.": 4044,
      "orNone ": 4045,
      ". To ": 4046,
      "unless ": 4047,
      "ull": 4048,
      "abl": 4049,
      "within ": 4050,
      "STR": 4051,
      "mapping": 4052,
      "http.": 4053,
      "particular": 4054,
      "try:\n": 4055,
      "traver": 4056,
      "5.\n": 4057,
      "Mag": 4058,
      "categ": 4059,
      "seq": 4060,
      "fore ": 4061,
      "argv": 4062,
      "ts to ": 4063,
      "servi": 4064,
      "s. If ": 4065,
      "setup": 4066,
      "arith": 4067,
      "descriptor ": 4068,
      "succeed": 4069,
      "release ": 4070,
      "free-threaded ": 4071,
      "embed": 4072,
      "</": 4073,
      "OD": 4074,
      "_R": 4075,
      "_NO": 4076,
      "ain ": 4077,
      "turn": 4078,
      "â¦": 4079,
      "annot": 4080,
      "title": 4081,
      "under ": 4082,
      "noti": 4083,
      "conso": 4084,
      "for this ": 4085,
      "short": 4086,
      "lineno": 4087,
      "content ": 4088,
      "weak": 4089,
      "width ": 4090,
      "URL ": 4091,
      "produce ": 4092,
      "OF ": 4093,
      "NotImplement": 4094,
      "POSIX ": 4095,
      "through the ": 4096,
      "Head": 4097,
      "Other ": 4098,
      "cs": 4099,
      "f\"": 4100,
      "fd ": 4101,
      "lab": 4102,
      "arily ": 4103,
      "str, ": 4104,
      "are the ": 4105,
      "shut": 4106,
      "prefer": 4107,
      "function, ": 4108,
      "numbers ": 4109,
      "is not a ": 4110,
      "threading.": 4111,
      "contin": 4112,
      "over the ": 4113,
      "get the ": 4114,
      "modify": 4115,
      "Des": 4116,
      "HA": 4117,
      "foun": 4118,
      "mic": 4119,
      "sent": 4120,
      "ub": 4121,
      "ster ": 4122,
      "note ": 4123,
      "fork": 4124,
      "isNone ": 4125,
      "nee": 4126,
      "instances": 4127,
      "14: ": 4128,
      "prior": 4129,
      "Only ": 4130,
      "literal ": 4131,
      "parser = ": 4132,
      "warnings ": 4133,
      "Color.": 4134,
      "happen": 4135,
      "external ": 4136,
      "'] ": 4137,
      "- the ": 4138,
      "5: ": 4139,
      "75": 4140,
      "IZ": 4141,
      "on_": 4142,
      "    print(": 4143,
      "abled ": 4144,
      "will not be ": 4145,
      "below ": 4146,
      "timedel": 4147,
      "expr": 4148,
      "arguments, ": 4149,
      "specifies the ": 4150,
      "backslash": 4151,
      "any other ": 4152,
      "Exp": 4153,
      "find ": 4154,
      "tests ": 4155,
      "headers ": 4156,
      "executable ": 4157,
      "turtle ": 4158,
      "Any ": 4159,
      "9999": 4160,
      "Sock": 4161,
      "Path.": 4162,
      "activ": 4163,
      "simply ": 4164,
      "(default": 4165,
      "), the ": 4166,
      "33": 4167,
      "NAM": 4168,
      "_info": 4169,
      "ctypes.": 4170,
      "dynam": 4171,
      "sure": 4172,
      "str.": 4173,
      "Trans": 4174,
      "Context ": 4175,
      "flag is ": 4176,
      "stdout ": 4177,
      "representing the ": 4178,
      "Optional ": 4179,
      "-based ": 4180,
      "    | '": 4181,
      "language ": 4182,
      "basic ": 4183,
      "recogn": 4184,
      "22": 4185,
      "Oper": 4186,
      "QU": 4187,
      "eval": 4188,
      "send ": 4189,
      "orrow": 4190,
      "dir ": 4191,
      "for i ": 4192,
      "sume": 4193,
      "  - If ": 4194,
      "intend": 4195,
      "ses the ": 4196,
      "moduleâs ": 4197,
      "ood ": 4198,
      "secur": 4199,
      "call to ": 4200,
      "response ": 4201,
      "matching ": 4202,
      "HTM": 4203,
      "extract": 4204,
      ".  The\n": 4205,
      "property ": 4206,
      "Number": 4207,
      "Magic": 4208,
      "40": 4209,
      "JSON": 4210,
      "Na": 4211,
      "Set ": 4212,
      "cal ": 4213,
      "ution ": 4214,
      "ensure ": 4215,
      "toge": 4216,
      "lean ": 4217,
      "sequ": 4218,
      "ing it ": 4219,
      "PyModule": 4220,
      "ed.  ": 4221,
      "spaw": 4222,
      "qual": 4223,
      "there is ": 4224,
      "accept": 4225,
      "PyTypeObject ": 4226,
      "symbolic ": 4227,
      "semantic": 4228,
      "WA": 4229,
      "just": 4230,
      "round": 4231,
      ", *, ": 4232,
      "ates the ": 4233,
      "semb": 4234,
      "ing an ": 4235,
      "             ": 4236,
      "name='": 4237,
      "objects, ": 4238,
      "functionality ": 4239,
      "subclas": 4240,
      "full": 4241,
      "compression": 4242,
      "success": 4243,
      "Event": 4244,
      "whitespace ": 4245,
      "192.0.": 4246,
      "<module": 4247,
      "aren": 4248,
      "egg": 4249,
      "s).\n": 4250,
      "ary\n": 4251,
      "aten": 4252,
      "tion.\n": 4253,
      "er and ": 4254,
      "ation is ": 4255,
      "timez": 4256,
      "set, ": 4257,
      "laun": 4258,
      "defines the ": 4259,
      "used by the ": 4260,
      "test_": 4261,
      "pip": 4262,
      "execute ": 4263,
      "members ": 4264,
      "collection ": 4265,
      "overridd": 4266,
      "related ": 4267,
      "\",\n": 4268,
      "2. ": 4269,
      "SÂ¶\n": 4270,
      "Task": 4271,
      "best ": 4272,
      "fre": 4273,
      "mask": 4274,
      "s can be ": 4275,
      "del ": 4276,
      "acro": 4277,
      "unsigned ": 4278,
      "ably ": 4279,
      "consum": 4280,
      "c = ": 4281,
      "file.\n": 4282,
      "so that ": 4283,
      "bot": 4284,
      ". This function ": 4285,
      "locale.": 4286,
      "retriev": 4287,
      "=0, ": 4288,
      ">, ": 4289,
      "FF": 4290,
      "brow": 4291,
      "f(": 4292,
      "page ": 4293,
      "s('": 4294,
      "tree ": 4295,
      "uct": 4296,
      "{}": 4297,
      ") [": 4298,
      "cover": 4299,
      "that is": 4300,
      "timestamp": 4301,
      "handling ": 4302,
      "binary": 4303,
      "ALL": 4304,
      "reference to the ": 4305,
      "== '": 4306,
      "assert_": 4307,
      "\"\"\"\n": 4308,
      "metaclas": 4309,
      "feature ": 4310,
      "body ": 4311,
      "verbose": 4312,
      "By default, ": 4313,
      "NE": 4314,
      "however": 4315,
      "erarch": 4316,
      "() >>> ": 4317,
      "for example ": 4318,
      "will raise ": 4319,
      "object that ": 4320,
      "object.": 4321,
      "expand": 4322,
      "subclasses ": 4323,
      "director": 4324,
      "print_": 4325,
      "multiprocessing": 4326,
      "remove ": 4327,
      "archive ": 4328,
      "installed ": 4329,
      "PEP 4": 4330,
      "Error is raise": 4331,
      "i.e. ": 4332,
      "alternative ": 4333,
      "problem": 4334,
      "constant ": 4335,
      "Comm": 4336,
      "Async": 4337,
      "28": 4338,
      "7: ": 4339,
      "a.": 4340,
      "b\"": 4341,
      "d-": 4342,
      "s from ": 4343,
      "ingÂ¶\n": 4344,
      "- G": 4345,
      "- --": 4346,
      "dex": 4347,
      "to an ": 4348,
      "ent\n": 4349,
      "map ": 4350,
      "resource": 4351,
      "ed(": 4352,
      "that are ": 4353,
      "atter ": 4354,
      "' or'": 4355,
      "defines ": 4356,
      "have the same ": 4357,
      "Python, ": 4358,
      "datetime": 4359,
      "False\n": 4360,
      "indicate ": 4361,
      "attribute.\n": 4362,
      "- Create ": 4363,
      "chroniz": 4364,
      "unittest.": 4365,
      "difference ": 4366,
      "(name, ": 4367,
      "78": 4368,
      "Foo": 4369,
      "Le": 4370,
      "Since ": 4371,
      "UU": 4372,
      "decimal": 4373,
      "ffix": 4374,
      "ary, ": 4375,
      "ed or ": 4376,
      "    .": 4377,
      "lease ": 4378,
      "isinstance": 4379,
      "read-only ": 4380,
      "signifi": 4381,
      "thread-": 4382,
      "extend": 4383,
      "foo.": 4384,
      ". These ": 4385,
      "order to ": 4386,
      "Like ": 4387,
      "certain ": 4388,
      "assignment": 4389,
      "extra ": 4390,
      "record": 4391,
      "**kw)Â¶\n": 4392,
      "========": 4393,
      "similar to ": 4394,
      "Load()": 4395,
      "total ": 4396,
      "8: ": 4397,
      "GIL": 4398,
      "Ver": 4399,
      "ive": 4400,
      "ome ": 4401,
      "y the ": 4402,
      "too": 4403,
      "- test.support.": 4404,
      "und": 4405,
      "compare": 4406,
      "PyObject": 4407,
      "used\n": 4408,
      "such as": 4409,
      "better ": 4410,
      "accept ": 4411,
      "addition": 4412,
      "compressed ": 4413,
      "left": 4414,
      "LOG": 4415,
      "org/": 4416,
      "column ": 4417,
      "description ": 4418,
      "Execut": 4419,
      "frozen": 4420,
      "(which ": 4421,
      "50": 4422,
      "=4": 4423,
      "Syn": 4424,
      "T, ": 4425,
      "_symlink": 4426,
      "ctypes ": 4427,
      "p, ": 4428,
      "sw": 4429,
      "then": 4430,
      "al-": 4431,
      "exist ": 4432,
      "es and ": 4433,
      "  - get_": 4434,
      "= (": 4435,
      "via": 4436,
      "e, and ": 4437,
      "module\n": 4438,
      "listen": 4439,
      "closed ": 4440,
      "active": 4441,
      "mix": 4442,
      ">>> mock.": 4443,
      "optparse ": 4444,
      "enumer": 4445,
      "Cookie": 4446,
      "sleep": 4447,
      "192.0.2.": 4448,
      "6.\n": 4449,
      "At": 4450,
      "Bin": 4451,
      "SM": 4452,
      "bits ": 4453,
      "al, ": 4454,
      "ed as a ": 4455,
      "- xml.": 4456,
      "mov": 4457,
      "resource ": 4458,
      "type check": 4459,
      "code is ": 4460,
      "DECREF": 4461,
      ". Availability: ": 4462,
      "html": 4463,
      "filename, ": 4464,
      "Interpreter": 4465,
      "environment variable ": 4466,
      "network": 4467,
      "ssl.": 4468,
      "System": 4469,
      "hierarch": 4470,
      "MIME ": 4471,
      "EV": 4472,
      "Fil": 4473,
      "GI": 4474,
      "Here ": 4475,
      "Over": 4476,
      "fast": 4477,
      "uid": 4478,
      "encounter": 4479,
      "ed the ": 4480,
      "a function ": 4481,
      "when\n": 4482,
      "will be\n": 4483,
      "s. Changed in version 3.": 4484,
      "should not be ": 4485,
      "result is ": 4486,
      "_ST": 4487,
      "loop ": 4488,
      "status": 4489,
      "asyncio": 4490,
      "TLS ": 4491,
      "|---|---|\n": 4492,
      "  File \"<": 4493,
      "re-": 4494,
      "stu": 4495,
      "a path-like ": 4496,
      "es. ": 4497,
      "move ": 4498,
      ": '": 4499,
      "shell ": 4500,
      "file-like ": 4501,
      "(),\n": 4502,
      "Node": 4503,
      "permis": 4504,
      "changes ": 4505,
      "format_": 4506,
      "ight": 4507,
      "require ": 4508,
      "clear ": 4509,
      "Code": 4510,
      "digest": 4511,
      "encoding and ": 4512,
      "earli": 4513,
      "month": 4514,
      "requires ": 4515,
      "later ": 4516,
      "event loop ": 4517,
      "I/O ": 4518,
      "9.": 4519,
      "Ab": 4520,
      "LIN": 4521,
      "here ": 4522,
      ") -> ": 4523,
      "ilar": 4524,
      "chain": 4525,
      "selection": 4526,
      "ate(": 4527,
      "sub-": 4528,
      "defined in ": 4529,
      "10: ": 4530,
      "Def ": 4531,
      "tware ": 4532,
      "created by ": 4533,
      "events ": 4534,
      "IMAP": 4535,
      "dir_f": 4536,
      "image ": 4537,
      "identifier ": 4538,
      "util.": 4539,
      "urllib.request": 4540,
      "nested ": 4541,
      "individual ": 4542,
      ".Availability: ": 4543,
      "64 ": 4544,
      "CS": 4545,
      "dr": 4546,
      "fd": 4547,
      "son": 4548,
      "year ": 4549,
      "- turtle.": 4550,
      "PyC": 4551,
      "for all ": 4552,
      "link ": 4553,
      "reading ": 4554,
      "type.\n": 4555,
      "Most ": 4556,
      "Program": 4557,
      "separated ": 4558,
      "Error is raised ": 4559,
      "----------------": 4560,
      "recogniz": 4561,
      "ide": 4562,
      "pla": 4563,
      "pid": 4564,
      "se\n": 4565,
      "on Window": 4566,
      "where": 4567,
      "str(": 4568,
      "function\n": 4569,
      "string.\n": 4570,
      "processe": 4571,
      "have to ": 4572,
      "start_": 4573,
      "operator ": 4574,
      "Return a ": 4575,
      "read safet": 4576,
      "sys.stderr": 4577,
      "Note that the ": 4578,
      "server.": 4579,
      "statistic": 4580,
      "\"\"\"": 4581,
      "macOS": 4582,
      "void *": 4583,
      "signature ": 4584,
      "baz": 4585,
      "argparse.ArgumentParser": 4586,
      "late ": 4587,
      "por": 4588,
      "pan": 4589,
      "ple ": 4590,
      "tut": 4591,
      "tâs ": 4592,
      "u ": 4593,
      "rehen": 4594,
      "| [1] |\n": 4595,
      "file_": 4596,
      "char_": 4597,
      "ook ": 4598,
      "entire ": 4599,
      "important ": 4600,
      "mailbox": 4601,
      "Configur": 4602,
      "parenthe": 4603,
      "useful for ": 4604,
      "syntax": 4605,
      "for more detail": 4606,
      "button": 4607,
      "compatibility ": 4608,
      "WARN": 4609,
      "(3": 4610,
      "(a ": 4611,
      "(1, ": 4612,
      "18": 4613,
      "sav": 4614,
      "xx": 4615,
      "in-": 4616,
      "d = ": 4617,
      "restor": 4618,
      "conversion": 4619,
      "           ": 4620,
      "Python interpreter ": 4621,
      "class is ": 4622,
      "pair ": 4623,
      "s. Th": 4624,
      "ly.\n": 4625,
      "backgr": 4626,
      "Error .\n": 4627,
      "find": 4628,
      "ect the ": 4629,
      "suitable ": 4630,
      "sqlite3.": 4631,
      "Posix": 4632,
      "imilar to ": 4633,
      "Cor": 4634,
      "Cre": 4635,
      "Eval": 4636,
      "Mail": 4637,
      "mit": 4638,
      "anch": 4639,
      "in which ": 4640,
      ".  For ": 4641,
      "None, ": 4642,
      "argument, ": 4643,
      "outside ": 4644,
      "Unst": 4645,
      "list, ": 4646,
      "10.\n": 4647,
      "Python.\n": 4648,
      "standar": 4649,
      "few ": 4650,
      "synchroniz": 4651,
      "Path ": 4652,
      "Example ": 4653,
      "Resul": 4654,
      "increment": 4655,
      "leading ": 4656,
      "ERROR": 4657,
      ",\"": 4658,
      "29": 4659,
      "=True, ": 4660,
      "Sel": 4661,
      "VE": 4662,
      "bar ": 4663,
      "cum": 4664,
      "flow": 4665,
      "mer": 4666,
      "nb_": 4667,
      "s.  The ": 4668,
      "ine ": 4669,
      "env": 4670,
      "at a ": 4671,
      "vali": 4672,
      "propag": 4673,
      "with an ": 4674,
      "pay": 4675,
      "example.": 4676,
      "run_": 4677,
      "), ('": 4678,
      "option is ": 4679,
      "safe": 4680,
      "whether the ": 4681,
      "youâre ": 4682,
      "INFO": 4683,
      "da ": 4684,
      "f_": 4685,
      "rc ": 4686,
      "- -": 4687,
      "roll": 4688,
      "fied ": 4689,
      "suffix": 4690,
      "that a ": 4691,
      "spe": 4692,
      "it to ": 4693,
      "trace ": 4694,
      "s.Changed in version 3.": 4695,
      "by a ": 4696,
      "objectsÂ¶\n": 4697,
      "' .\n": 4698,
      "s. Added in version 3.": 4699,
      "may not ": 4700,
      "decla": 4701,
      "s of a ": 4702,
      "Error\n": 4703,
      "11: ": 4704,
      ", which is ": 4705,
      "assignment ": 4706,
      "execute": 4707,
      "decorator ": 4708,
      "entries ": 4709,
      "Protocol": 4710,
      "prevent ": 4711,
      "schedul": 4712,
      "(r": 4713,
      "Deco": 4714,
      "Qu": 4715,
      "[2": 4716,
      "ipp": 4717,
      "infin": 4718,
      "in an ": 4719,
      "in Python ": 4720,
      "unchang": 4721,
      "caller ": 4722,
      "interval": 4723,
      "time() ": 4724,
      "world": 4725,
      "expon": 4726,
      "ly the ": 4727,
      "down ": 4728,
      ".Added in version 3.13.\n": 4729,
      "ITE": 4730,
      "described in ": 4731,
      "large ": 4732,
      "proxy ": 4733,
      "button ": 4734,
      "legac": 4735,
      "upper": 4736,
      "parser = argparse.ArgumentParser": 4737,
      "significan": 4738,
      "=1": 4739,
      "don": 4740,
      "has": 4741,
      "kin": 4742,
      ") # ": 4743,
      "it will ": 4744,
      "comprehen": 4745,
      "adding ": 4746,
      "x = ": 4747,
      "optional": 4748,
      "value)Â¶\n": 4749,
      "follow_symlink": 4750,
      "find_": 4751,
      "generally ": 4752,
      "mock_": 4753,
      "terminal ": 4754,
      "regard": 4755,
      "Polic": 4756,
      "controll": 4757,
      "compiled ": 4758,
      "body=": 4759,
      "Context.": 4760,
      "Server": 4761,
      "double ": 4762,
      "deprecat": 4763,
      "as well as ": 4764,
      " in ": 4765,
      "(if ": 4766,
      "AY": 4767,
      "Af": 4768,
      "ick": 4769,
      "sor": 4770,
      "s which ": 4771,
      ", \"": 4772,
      "lish": 4773,
      "term": 4774,
      "prob": 4775,
      "profil": 4776,
      "args.": 4777,
      "tax": 4778,
      "None\n": 4779,
      "interrup": 4780,
      "filesystem ": 4781,
      ". The default ": 4782,
      "string is ": 4783,
      "data is ": 4784,
      "alized ": 4785,
      "built ": 4786,
      "TypeÂ¶\n": 4787,
      "change the ": 4788,
      "parameter.\n": 4789,
      "format(": 4790,
      "seconds ": 4791,
      "reference to ": 4792,
      "up to ": 4793,
      "- Set the ": 4794,
      "separator": 4795,
      "formatted ": 4796,
      "Enum ": 4797,
      "Otherwise, ": 4798,
      "choi": 4799,
      "Connection": 4800,
      "Py_TPFLAGS_": 4801,
      "', ctx=Load()": 4802,
      "private ": 4803,
      "trailing ": 4804,
      "!\n": 4805,
      "9.\n": 4806,
      ":00": 4807,
      "MM": 4808,
      "OK": 4809,
      "Temp": 4810,
      "io.": 4811,
      "mat": 4812,
      "s can ": 4813,
      ", --": 4814,
      "- curses.": 4815,
      "- object.__": 4816,
      "resh": 4817,
      "you\n": 4818,
      "subclasse": 4819,
      "type\n": 4820,
      "with the same ": 4821,
      "10.": 4822,
      "rect ": 4823,
      "implementation detail": 4824,
      "determine ": 4825,
      "ereâs ": 4826,
      "attached ": 4827,
      "PyConfig.": 4828,
      "subprocess.": 4829,
      "metadata ": 4830,
      "Future ": 4831,
      "LogRec": 4832,
      "AF_": 4833,
      "Pack": 4834,
      "Zip": 4835,
      "[-1": 4836,
      "unpack": 4837,
      "for an ": 4838,
      "bug": 4839,
      "spac": 4840,
      "visi": 4841,
      "name\n": 4842,
      "ware": 4843,
      "Instan": 4844,
      "code that ": 4845,
      "perform ": 4846,
      "used as a ": 4847,
      "0 0 ": 4848,
      "executed ": 4849,
      "recv": 4850,
      "check_": 4851,
      "size=": 4852,
      "Spec": 4853,
      "transl": 4854,
      "record ": 4855,
      "distribution": 4856,
      "database": 4857,
      "Accep": 4858,
      "1, 2, 3": 4859,
      "Descrip": 4860,
      " The ": 4861,
      " |\n": 4862,
      "Do ": 4863,
      "OW": 4864,
      "Wra": 4865,
      "f'": 4866,
      "any\n": 4867,
      ". Note that ": 4868,
      "dev": 4869,
      "desc": 4870,
      "There ": 4871,
      "unic": 4872,
      ">>>\n": 4873,
      "with_": 4874,
      "party ": 4875,
      "line, ": 4876,
      "use of ": 4877,
      "compare ": 4878,
      "curses ": 4879,
      "module.": 4880,
      "may not be ": 4881,
      "string\n": 4882,
      "State ": 4883,
      "code, ": 4884,
      "general ": 4885,
      "access to ": 4886,
      "Struct": 4887,
      "identifier": 4888,
      "else:\n": 4889,
      "beginning ": 4890,
      "precision ": 4891,
      "(a": 4892,
      "(and ": 4893,
      "). The ": 4894,
      "36": 4895,
      "Date": 4896,
      "POR": 4897,
      "TÂ¶\n": 4898,
      "VAL": 4899,
      "},\n": 4900,
      "or_": 4901,
      "enum ": 4902,
      "    \"": 4903,
      "PyThread": 4904,
      "verif": 4905,
      "strong ": 4906,
      "any of the ": 4907,
      "contains the ": 4908,
      "async": 4909,
      "- class ast.": 4910,
      "store_": 4911,
      "|  |\n": 4912,
      ".  This is ": 4913,
      "delete ": 4914,
      "formatting ": 4915,
      "copy of the ": 4916,
      "escape ": 4917,
      "aware ": 4918,
      "Previ": 4919,
      "resources ": 4920,
      "efficient ": 4921,
      "â, â": 4922,
      "launch": 4923,
      "*\n": 4924,
      "-in": 4925,
      "Equivalent ": 4926,
      "Id": 4927,
      "Tk": 4928,
      "Test ": 4929,
      "TIM": 4930,
      "cour": 4931,
      "ss ": 4932,
      "|          ": 4933,
      "ed when ": 4934,
      "- tkinter.": 4935,
      "design": 4936,
      ") for ": 4937,
      "all\n": 4938,
      "rete ": 4939,
      ">>> def ": 4940,
      "keep": 4941,
      "explicit ": 4942,
      "all of the ": 4943,
      "value.\n": 4944,
      "used as the ": 4945,
      "While ": 4946,
      "root": 4947,
      "Generic": 4948,
      "evaluated ": 4949,
      "sche": 4950,
      "destin": 4951,
      "omitted ": 4952,
      "against ": 4953,
      "PosixPath('": 4954,
      "Wid": 4955,
      "dst": 4956,
      "eli": 4957,
      "fa": 4958,
      "found": 4959,
      "native ": 4960,
      "â\n": 4961,
      "y to ": 4962,
      "iliti": 4963,
      "using\n": 4964,
      "es of ": 4965,
      "s, which ": 4966,
      "with statement": 4967,
      "short ": 4968,
      "syslo": 4969,
      "value for ": 4970,
      "Info": 4971,
      "Parse": 4972,
      "container ": 4973,
      "1234": 4974,
      "integers ": 4975,
      "become": 4976,
      "available on ": 4977,
      "indicating ": 4978,
      "tag ": 4979,
      "Handler(": 4980,
      "information.\n": 4981,
      "small ": 4982,
      "destro": 4983,
      "comparison": 4984,
      "Alias ": 4985,
      "%s": 4986,
      "(a, b": 4987,
      ".set": 4988,
      ".close": 4989,
      "9: ": 4990,
      "fac": 4991,
      "ute": 4992,
      "{ ": 4993,
      "ââ ": 4994,
      "e a ": 4995,
      "s an ": 4996,
      "ed with the ": 4997,
      "lear": 4998,
      "for use ": 4999,
      "args(": 5000,
      "__\n": 5001,
      ">>> '": 5002,
      "typing ": 5003,
      "this case": 5004,
      "added to the ": 5005,
      "puts ": 5006,
      "like the ": 5007,
      "pix": 5008,
      "remove": 5009,
      "data.": 5010,
      "spec ": 5011,
      "tools ": 5012,
      "override": 5013,
      "http://": 5014,
      "Message": 5015,
      "negati": 5016,
      "__init__(self, ": 5017,
      "machiner": 5018,
      "remaining ": 5019,
      "Support ": 5020,
      "txt": 5021,
      "Local": 5022,
      "(such as ": 5023,
      "), and ": 5024,
      "12 ": 5025,
      "U ": 5026,
      "_IN": 5027,
      "a_": 5028,
      "done": 5029,
      "draw": 5030,
      "fet": 5031,
      "good ": 5032,
      "know ": 5033,
      "tor": 5034,
      "restric": 5035,
      "    }\n": 5036,
      "le\n": 5037,
      ") as ": 5038,
      "exc_": 5039,
      "call the ": 5040,
      "trunc": 5041,
      "with no ": 5042,
      "' | ": 5043,
      "starts ": 5044,
      "sys.path ": 5045,
      "given by ": 5046,
      "[1]": 5047,
      "instances of ": 5048,
      "screen ": 5049,
      "positional argument": 5050,
      "Logger": 5051,
      "=True)Â¶\n": 5052,
      "spawn": 5053,
      "C+": 5054,
      "DI": 5055,
      "ETH": 5056,
      "gment": 5057,
      "ing:\n": 5058,
      "ating the ": 5059,
      "or to ": 5060,
      "class\n": 5061,
      "emit": 5062,
      "subsequ": 5063,
      "Inher": 5064,
      "name and ": 5065,
      "its own ": 5066,
      "IN ": 5067,
      "continu": 5068,
      "formatter": 5069,
      "attribute is ": 5070,
      "versions of ": 5071,
      "Namespace": 5072,
      "convert ": 5073,
      "monitor": 5074,
      "    def __": 5075,
      "less than ": 5076,
      "__init__": 5077,
      "letter": 5078,
      "directories ": 5079,
      "arithme": 5080,
      "Coun": 5081,
      "Do": 5082,
      "Tur": 5083,
      "[i": 5084,
      "dup": 5085,
      "ump": 5086,
      "wal": 5087,
      ", or": 5088,
      "at\n": 5089,
      "lean": 5090,
      "scan": 5091,
      "filesystem": 5092,
      "Char": 5093,
      "you to ": 5094,
      "specifies ": 5095,
      "idd": 5096,
      "code.\n": 5097,
      "will be called ": 5098,
      "contains a ": 5099,
      "                     ": 5100,
      "__ ,__": 5101,
      "exceptions ": 5102,
      "   # ": 5103,
      "size of the ": 5104,
      "only\n": 5105,
      "// ": 5106,
      "macro ": 5107,
      "specification ": 5108,
      "lambda ": 5109,
      "famil": 5110,
      "project": 5111,
      "Constant(": 5112,
      "for i in range(": 5113,
      "read safety: ": 5114,
      "scheme": 5115,
      "+= ": 5116,
      ".)\n": 5117,
      "27": 5118,
      "LC": 5119,
      "_Check": 5120,
      "inc": 5121,
      ", you can ": 5122,
      "to the\n": 5123,
      "() call": 5124,
      "__getitem": 5125,
      "cally, ": 5126,
      "inter ": 5127,
      "ed to a ": 5128,
      "selection ": 5129,
      "use_": 5130,
      "used, ": 5131,
      "RE ": 5132,
      "home": 5133,
      "icen": 5134,
      "like this": 5135,
      "canât ": 5136,
      "sequences": 5137,
      "            return ": 5138,
      "thread state ": 5139,
      "Andro": 5140,
      "modific": 5141,
      "replacement ": 5142,
      "slice ": 5143,
      "was added.\n": 5144,
      "SQLite ": 5145,
      "multiprocessing.": 5146,
      "swit": 5147,
      "cumul": 5148,
      "1.\n": 5149,
      "4: ": 5150,
      "5\n": 5151,
      "Fir": 5152,
      "Sh": 5153,
      "TO": 5154,
      "eas": 5155,
      "sul": 5156,
      "see": 5157,
      "rol": 5158,
      "chunk": 5159,
      "adap": 5160,
      "maj": 5161,
      "show ": 5162,
      "sys": 5163,
      "kep": 5164,
      "objects. ": 5165,
      "ould\n": 5166,
      "(): ": 5167,
      "; if ": 5168,
      "size, ": 5169,
      "have the ": 5170,
      "will be remov": 5171,
      "operand": 5172,
      "ABLE": 5173,
      "popul": 5174,
      "$ python ": 5175,
      "Default: ": 5176,
      "stdin>\", line ": 5177,
      "concaten": 5178,
      "Dict ": 5179,
      "calendar": 5180,
      "orrowed ": 5181,
      "overridden ": 5182,
      "'s ": 5183,
      "(b'": 5184,
      "-X ": 5185,
      "2)\n": 5186,
      "9, ": 5187,
      "Licen": 5188,
      "To": 5189,
      "dri": 5190,
      "iso": 5191,
      "anti": 5192,
      "ded, ": 5193,
      "and then ": 5194,
      "= \"": 5195,
      "line.": 5196,
      "suppres": 5197,
      "location": 5198,
      "type is ": 5199,
      "ap ": 5200,
      "run(": 5201,
      "None .\n": 5202,
      "Dele": 5203,
      "open(": 5204,
      "ipul": 5205,
      "Open ": 5206,
      "undersc": 5207,
      "relev": 5208,
      "wrap": 5209,
      "lookup": 5210,
      "trigg": 5211,
      "debugging ": 5212,
      "Document": 5213,
      "public ": 5214,
      "algorithm": 5215,
      "preced": 5216,
      "collections.abc.": 5217,
      "how the ": 5218,
      "(iterable": 5219,
      ".If the ": 5220,
      "Bec": 5221,
      "CE": 5222,
      "DÂ¶\n": 5223,
      "FI": 5224,
      "GC": 5225,
      "IE": 5226,
      "Task ": 5227,
      "_id": 5228,
      "âââ ": 5229,
      "eri": 5230,
      "      - ": 5231,
      "diff": 5232,
      "() (": 5233,
      "most": 5234,
      "amoun": 5235,
      "op ": 5236,
      "ed, and ": 5237,
      "class.\n": 5238,
      "ate a ": 5239,
      "but not ": 5240,
      "must not be ": 5241,
      "bool": 5242,
      "os.path.": 5243,
      "since the ": 5244,
      "server_": 5245,
      "initialization ": 5246,
      "keyword argument ": 5247,
      "because the ": 5248,
      ") >>> turtle.": 5249,
      "properti": 5250,
      "registered ": 5251,
      "args, **kwargs": 5252,
      "basic": 5253,
      "recommend": 5254,
      "configured ": 5255,
      "Parameters:\n": 5256,
      "! ": 5257,
      "')Â¶\n": 5258,
      "(c": 5259,
      "-h": 5260,
      "GI ": 5261,
      "_B": 5262,
      "a', '": 5263,
      "deno": 5264,
      "enable ": 5265,
      "ing. ": 5266,
      "- M": 5267,
      "its\n": 5268,
      "forward ": 5269,
      "ed:\n": 5270,
      "clause ": 5271,
      "ed in Python 3.": 5272,
      "poll": 5273,
      "shif": 5274,
      "location ": 5275,
      "communic": 5276,
      "followed by ": 5277,
      "finder": 5278,
      "                    ": 5279,
      "='', ": 5280,
      "parsers.": 5281,
      "When a ": 5282,
      "address.": 5283,
      "instance, ": 5284,
      "annotations ": 5285,
      "schem": 5286,
      "wrapper ": 5287,
      "scope ": 5288,
      "an instance of ": 5289,
      "Specifi": 5290,
      "continue ": 5291,
      "Socket": 5292,
      "AL ": 5293,
      "_n": 5294,
      "_New": 5295,
      "clock": 5296,
      "dst ": 5297,
      "deci": 5298,
      "e() ": 5299,
      "foc": 5300,
      "g.": 5301,
      "ner": 5302,
      "os": 5303,
      "ence": 5304,
      "atyp": 5305,
      "to call ": 5306,
      "rok": 5307,
      "parts ": 5308,
      ".  For example": 5309,
      "....": 5310,
      "ctest ": 5311,
      "if __name__ ": 5312,
      "read_": 5313,
      "in the same ": 5314,
      "methods:\n": 5315,
      "strings, ": 5316,
      "prints ": 5317,
      "correct ": 5318,
      "Exten": 5319,
      "provid": 5320,
      "final ": 5321,
      "default value ": 5322,
      "                '": 5323,
      "manipul": 5324,
      ".Added in version 3.14.\n": 5325,
      "representation ": 5326,
      "newline ": 5327,
      "accessed ": 5328,
      "independ": 5329,
      "obj ": 5330,
      "applications ": 5331,
      "reg.": 5332,
      "ttk": 5333,
      "capt": 5334,
      "is an alias ": 5335,
      "annotation ": 5336,
      "classmethod ": 5337,
      "depends on the ": 5338,
      "provide a ": 5339,
      "known": 5340,
      "includes ": 5341,
      "equal to ": 5342,
      "relative to the ": 5343,
      "double": 5344,
      "resources": 5345,
      "algorithm ": 5346,
      "site-": 5347,
      "regardles": 5348,
      "(as ": 5349,
      "38": 5350,
      "WS": 5351,
      "gz": 5352,
      "- socket.": 5353,
      "dealloc": 5354,
      "in <module": 5355,
      "no\n": 5356,
      "ationÂ¶\n": 5357,
      "had ": 5358,
      "function that ": 5359,
      "Info ": 5360,
      "READ": 5361,
      "bytes object ": 5362,
      "0.1": 5363,
      ".  It is ": 5364,
      "archive": 5365,
      "Valu": 5366,
      "sample": 5367,
      "delete": 5368,
      "break ": 5369,
      "Generic ": 5370,
      "distribution ": 5371,
      "sensi": 5372,
      "temporary ": 5373,
      "csv": 5374,
      "Because ": 5375,
      "(\n": 5376,
      "Fro": 5377,
      "Free": 5378,
      "_L": 5379,
      "e-": 5380,
      "head ": 5381,
      "wchar_": 5382,
      ", /": 5383,
      "arri": 5384,
      "and is ": 5385,
      "ally\n": 5386,
      "an iterator ": 5387,
      "nothing ": 5388,
      "of its ": 5389,
      "ed. The ": 5390,
      "  - __": 5391,
      "Python code ": 5392,
      "selected ": 5393,
      "set\n": 5394,
      "gettext": 5395,
      "Tran": 5396,
      "one or more ": 5397,
      "per-": 5398,
      "ther\n": 5399,
      "parameter. Changed in version 3.": 5400,
      "representation": 5401,
      "Prox": 5402,
      ". An ": 5403,
      "disable ": 5404,
      "memory block": 5405,
      "behaviour ": 5406,
      "between the ": 5407,
      "factory": 5408,
      "register_": 5409,
      "ast.parse": 5410,
      "'])\n": 5411,
      "keyword-only ": 5412,
      "POSIX": 5413,
      "purpose": 5414,
      "Auth": 5415,
      "Unix, not WASI": 5416,
      "urllib.request.": 5417,
      "(?": 5418,
      "17": 5419,
      "2) ": 5420,
      "Found": 5421,
      "sort ": 5422,
      "was\n": 5423,
      "ed on ": 5424,
      "of the": 5425,
      "ull ": 5426,
      "() or ": 5427,
      "  - This ": 5428,
      "parsed ": 5429,
      "ise ": 5430,
      "can be\n": 5431,
      "interpol": 5432,
      "--foo": 5433,
      "layou": 5434,
      "string.": 5435,
      "write(": 5436,
      "list[": 5437,
      "s and the ": 5438,
      "') as ": 5439,
      "- Return True if the ": 5440,
      "            # ": 5441,
      "executable": 5442,
      "Pool": 5443,
      "source code ": 5444,
      "Once ": 5445,
      "Function ": 5446,
      "compiler ": 5447,
      "IOBase ": 5448,
      "SSLContext.": 5449,
      "verbosi": 5450,
      "based on ": 5451,
      "Web": 5452,
      "message, ": 5453,
      "Curren": 5454,
      "shutdown": 5455,
      "timedelta": 5456,
      "Transp": 5457,
      "'))\n": 5458,
      "(const char *": 5459,
      "11 ": 5460,
      "Sha": 5461,
      "UD": 5462,
      "Zer": 5463,
      "_char": 5464,
      "ding\n": 5465,
      "hook ": 5466,
      "rint ": 5467,
      "ted, ": 5468,
      "y. ": 5469,
      "ed at ": 5470,
      "- In": 5471,
      "- Conver": 5472,
      "situ": 5473,
      ") to ": 5474,
      "unles": 5475,
      "of type ": 5476,
      "as follow": 5477,
      "am ": 5478,
      "quali": 5479,
      "pool": 5480,
      "share": 5481,
      "expr ": 5482,
      "you want to ": 5483,
      "practi": 5484,
      "cip": 5485,
      "mbol": 5486,
      "should be a ": 5487,
      "mode, ": 5488,
      "become ": 5489,
      "ITIC": 5490,
      "-  Part of the Stable ABI": 5491,
      "base_": 5492,
      "token ": 5493,
      "previously ": 5494,
      "append(": 5495,
      "condition ": 5496,
      "codec ": 5497,
      "description": 5498,
      "cycle": 5499,
      "ey are ": 5500,
      "acquire": 5501,
      "botto": 5502,
      "Syntax": 5503,
      "via the ": 5504,
      "Decimal ": 5505,
      "El": 5506,
      "IB": 5507,
      "Is": 5508,
      "SL": 5509,
      "Wa": 5510,
      "``": 5511,
      "iOS": 5512,
      "tree": 5513,
      "watch": 5514,
      "s may ": 5515,
      "endi": 5516,
      "leav": 5517,
      "a = ": 5518,
      "- window": 5519,
      ") or ": 5520,
      "choo": 5521,
      "offer": 5522,
      "of the Python ": 5523,
      "of the same ": 5524,
      "line\n": 5525,
      "low-level ": 5526,
      "time, ": 5527,
      "is a string ": 5528,
      "0 on succes": 5529,
      "RED ": 5530,
      "docstring": 5531,
      "pip ": 5532,
      "occurren": 5533,
      "THE ": 5534,
      "decoded ": 5535,
      "message\n": 5536,
      "needs to ": 5537,
      "imag": 5538,
      "is no longer ": 5539,
      ">>> mock = ": 5540,
      "tzinfo": 5541,
      "recursi": 5542,
      "signature": 5543,
      "certificate ": 5544,
      "(x, y": 5545,
      "was added": 5546,
      "introduc": 5547,
      "micro": 5548,
      "(arg": 5549,
      "1:": 5550,
      "65": 5551,
      "Flo": 5552,
      "SA": 5553,
      "Text ": 5554,
      "is also ": 5555,
      ". Return ": 5556,
      "er = ": 5557,
      "ile the ": 5558,
      "es.": 5559,
      "PyDict": 5560,
      "reserv": 5561,
      "and__": 5562,
      "ed; ": 5563,
      "calling": 5564,
      "doctest ": 5565,
      "with the\n": 5566,
      "implicitly ": 5567,
      "set.\n": 5568,
      "type of the ": 5569,
      "has the ": 5570,
      "multiprocessing ": 5571,
      "orial": 5572,
      "match the ": 5573,
      "terminated ": 5574,
      "13 ": 5575,
      "here": 5576,
      "args=": 5577,
      "pending ": 5578,
      "...     def ": 5579,
      "requested ": 5580,
      "False otherwise": 5581,
      "modify ": 5582,
      "Interrup": 5583,
      "invol": 5584,
      "could be ": 5585,
      "author": 5586,
      "recommended ": 5587,
      "precision": 5588,
      "virtual environment": 5589,
      "wards ": 5590,
      "operating system": 5591,
      "same\n": 5592,
      "TestCase": 5593,
      "& ": 5594,
      "98": 5595,
      "C\n": 5596,
      "a-": 5597,
      "s,": 5598,
      "tech": 5599,
      "refl": 5600,
      "alph": 5601,
      "ligh": 5602,
      "dialog": 5603,
      "edit": 5604,
      "itertools.": 5605,
      "out\n": 5606,
      "), (": 5607,
      "used as ": 5608,
      "data = ": 5609,
      "works ": 5610,
      "represents the ": 5611,
      "mock.": 5612,
      "imported ": 5613,
      "accessible ": 5614,
      ". An": 5615,
      "types.\n": 5616,
      "Disp": 5617,
      "Direct": 5618,
      "separator ": 5619,
      "timer ": 5620,
      "languag": 5621,
      "debugger ": 5622,
      "possibly ": 5623,
      "alog ": 5624,
      "Custom_": 5625,
      "answ": 5626,
      "discus": 5627,
      "taken ": 5628,
      "security ": 5629,
      "WARNING": 5630,
      "Wrapp": 5631,
      " and": 5632,
      "37": 5633,
      "DAY": 5634,
      "Stop": 5635,
      "cy ": 5636,
      "cl ": 5637,
      "though": 5638,
      "a file ": 5639,
      "ing for ": 5640,
      "        '": 5641,
      "but\n": 5642,
      "__dict": 5643,
      ".  (": 5644,
      "doing ": 5645,
      "cursor ": 5646,
      "path is ": 5647,
      "specified by ": 5648,
      "int | ": 5649,
      "] [": 5650,
      "web": 5651,
      "documentation": 5652,
      "standard library ": 5653,
      "refer ": 5654,
      "00000000": 5655,
      "logging.get": 5656,
      "parent": 5657,
      "shown ": 5658,
      "ASCII": 5659,
      "mutable": 5660,
      "bool ": 5661,
      "skip": 5662,
      "retrie": 5663,
      "according to the ": 5664,
      "clause": 5665,
      "!= ": 5666,
      "':\n": 5667,
      "),": 5668,
      "DOM ": 5669,
      "Norm": 5670,
      "eb": 5671,
      "sgi": 5672,
      "{\"": 5673,
      ", except ": 5674,
      "tive": 5675,
      "step ": 5676,
      "    ...\n": 5677,
      "a Python ": 5678,
      "a class ": 5679,
      "- En": 5680,
      "- Rais": 5681,
      "chap": 5682,
      "that can be ": 5683,
      "  - is_": 5684,
      "calls to ": 5685,
      ">>> list(": 5686,
      "if it is ": 5687,
      "if they ": 5688,
      "functions and ": 5689,
      "creation ": 5690,
      "explicit": 5691,
      "subscrip": 5692,
      "report ": 5693,
      "more\n": 5694,
      "keys ": 5695,
      "core ": 5696,
      "providing ": 5697,
      "type(": 5698,
      "None , ": 5699,
      "winreg.": 5700,
      "unique ": 5701,
      "- Call": 5702,
      ": Added support for ": 5703,
      "contents of the ": 5704,
      "Compres": 5705,
      "hold ": 5706,
      "skipp": 5707,
      "performance ": 5708,
      "placehol": 5709,
      "direct ": 5710,
      "problem ": 5711,
      "dump(": 5712,
      "Buffered": 5713,
      "ascii": 5714,
      "included in the ": 5715,
      "kind ": 5716,
      "Accepts ": 5717,
      "kept ": 5718,
      "scheme ": 5719,
      " Changed in version 3.": 5720,
      "6\n": 5721,
      "60": 5722,
      "=0": 5723,
      "Both": 5724,
      "FOR": 5725,
      "Hereâs ": 5726,
      "PL": 5727,
      "PE ": 5728,
      "Sign": 5729,
      "igu": 5730,
      "s', '": 5731,
      "reli": 5732,
      "rely ": 5733,
      "sep": 5734,
      "- stat": 5735,
      "an integer": 5736,
      "of all ": 5737,
      "ter(": 5738,
      "radi": 5739,
      "data\n": 5740,
      "created": 5741,
      "example, ": 5742,
      "code\n": 5743,
      "should not ": 5744,
      "C API ": 5745,
      "finder ": 5746,
      "mini": 5747,
      "references": 5748,
      "are:\n": 5749,
      "ER ": 5750,
      "handsha": 5751,
      "notation": 5752,
      "ALL ": 5753,
      "ART": 5754,
      "zero, ": 5755,
      "Class ": 5756,
      "mime": 5757,
      "might be ": 5758,
      "blan": 5759,
      "software ": 5760,
      "depending on ": 5761,
      "Group": 5762,
      "stmt": 5763,
      "JSON ": 5764,
      "NaN": 5765,
      "'r": 5766,
      "(i": 5767,
      ".h": 5768,
      "2-": 5769,
      "3. ": 5770,
      "TC": 5771,
      "Writer": 5772,
      "\\r": 5773,
      "late": 5774,
      "wonât ": 5775,
      "t = ": 5776,
      "anced ": 5777,
      "is un": 5778,
      "too ": 5779,
      "to avoid ": 5780,
      "m = ": 5781,
      "named": 5782,
      "predic": 5783,
      "s. It ": 5784,
      "substi": 5785,
      "methods, ": 5786,
      "Not ": 5787,
      "string literal": 5788,
      "listed ": 5789,
      "REEN": 5790,
      "threading ": 5791,
      "binding ": 5792,
      "errors.": 5793,
      "              ": 5794,
      "On Windows, ": 5795,
      "need to be ": 5796,
      "missing ": 5797,
      "whole ": 5798,
      "hold": 5799,
      "anything ": 5800,
      "ambigu": 5801,
      "sets the ": 5802,
      "associated with the ": 5803,
      "specify the ": 5804,
      "derived ": 5805,
      "desired ": 5806,
      "parser.parse_args(": 5807,
      "Attr": 5808,
      "plain ": 5809,
      "VALU": 5810,
      "Previous": 5811,
      "** ": 5812,
      "=<": 5813,
      "Mut": 5814,
      "Out": 5815,
      "PRE": 5816,
      "Section ": 5817,
      "ZIP ": 5818,
      "due ": 5819,
      "f-": 5820,
      "nan": 5821,
      "pk": 5822,
      "s), ": 5823,
      "vector": 5824,
      "in_": 5825,
      "real": 5826,
      "aly": 5827,
      "version of the ": 5828,
      "Index": 5829,
      "backward ": 5830,
      "Stand": 5831,
      "Py_DECREF": 5832,
      "write_": 5833,
      "\" | ": 5834,
      "ipaddress.": 5835,
      "your own ": 5836,
      "provided, ": 5837,
      "loaded ": 5838,
      "state, ": 5839,
      "commands ": 5840,
      "String ": 5841,
      "occur ": 5842,
      "property": 5843,
      "like\n": 5844,
      "style": 5845,
      "symbol ": 5846,
      "convenience ": 5847,
      "third ": 5848,
      "defines the following ": 5849,
      "body=[ ": 5850,
      ")]": 5851,
      "fon": 5852,
      "mask ": 5853,
      "invalid": 5854,
      ", int ": 5855,
      "entical ": 5856,
      "ated\n": 5857,
      "rog": 5858,
      "stra": 5859,
      "strf": 5860,
      "with-": 5861,
      "do_": 5862,
      "domain ": 5863,
      "impro": 5864,
      "compu": 5865,
      "value = ": 5866,
      "time z": 5867,
      "empt": 5868,
      "(self.": 5869,
      "returned by": 5870,
      "Raw": 5871,
      "expressions ": 5872,
      "top-level ": 5873,
      "attributes:\n": 5874,
      "i.e.": 5875,
      "Flag ": 5876,
      "abstract": 5877,
      "as well": 5878,
      "BLU": 5879,
      "registry ": 5880,
      "OpenSSL ": 5881,
      "slot ID ": 5882,
      "Work": 5883,
      "embedded ": 5884,
      "Binary ": 5885,
      "declared ": 5886,
      "significant ": 5887,
      "destroy": 5888,
      "parsers.exp": 5889,
      "'t ": 5890,
      "-of": 5891,
      "4\n": 5892,
      "DAT": 5893,
      "E\n": 5894,
      "Pick": 5895,
      "TCP": 5896,
      "USE": 5897,
      "_offset": 5898,
      "boun": 5899,
      "sus": 5900,
      "sing the ": 5901,
      "yet ": 5902,
      "one\n": 5903,
      ", the\n": 5904,
      "tion of ": 5905,
      "nother ": 5906,
      "() for ": 5907,
      "maph": 5908,
      "buf": 5909,
      "and/": 5910,
      "quanti": 5911,
      "s.The ": 5912,
      "se the ": 5913,
      "arguments.\n": 5914,
      "paths ": 5915,
      "â or ": 5916,
      "1 and ": 5917,
      "have an ": 5918,
      "Typed": 5919,
      "bin/": 5920,
      "config ": 5921,
      "weak ": 5922,
      "helper": 5923,
      ".Added in version 3.3.\n": 5924,
      "dictionari": 5925,
      "- The corresponding ": 5926,
      "archiv": 5927,
      ". Al": 5928,
      "status ": 5929,
      "called\n": 5930,
      "ref.": 5931,
      "produces ": 5932,
      "automaticall": 5933,
      "obtain": 5934,
      "Arg_": 5935,
      "missing": 5936,
      "See also the ": 5937,
      "ASCII character": 5938,
      "boolean ": 5939,
      "[0]": 5940,
      "tracem": 5941,
      "coordinates ": 5942,
      "usage: ": 5943,
      "primary ": 5944,
      "PATH ": 5945,
      "d-party ": 5946,
      "', ctx=Load()), ": 5947,
      "DateTime": 5948,
      "Constant(value=": 5949,
      "Zero": 5950,
      "(e.g.": 5951,
      "(void": 5952,
      ":  ": 5953,
      "Dist": 5954,
      "Down": 5955,
      "RAN": 5956,
      "hour": 5957,
      "mou": 5958,
      "uuid": 5959,
      "wsgi": 5960,
      "invo": 5961,
      "req": 5962,
      "f = ": 5963,
      ") are ": 5964,
      "on error": 5965,
      "es:\n": 5966,
      "usual ": 5967,
      "es for ": 5968,
      "wher": 5969,
      "ed-": 5970,
      "part of the Stable AB": 5971,
      "upon ": 5972,
      "pre-": 5973,
      "functions, ": 5974,
      "argument.\n": 5975,
      "file object ": 5976,
      "methods are ": 5977,
      "lib/python": 5978,
      "Exit": 5979,
      "star_": 5980,
      "Py_Initializ": 5981,
      "default is ": 5982,
      "TypeVar": 5983,
      "ility ": 5984,
      "worker ": 5985,
      "mode='": 5986,
      "...     print(": 5987,
      "And": 5988,
      "behaviour": 5989,
      "platforms ": 5990,
      "configuration": 5991,
      "some_": 5992,
      "sometimes ": 5993,
      "receive ": 5994,
      "small": 5995,
      "\\x00": 5996,
      "tzinfo ": 5997,
      "Write": 5998,
      "Sequence ": 5999,
      "Order": 6000,
      "^^^^": 6001,
      "Address('": 6002,
      "rounding ": 6003,
      "make_": 6004,
      "- errno.E": 6005,
      "concurrent.": 6006,
      "symbolic link": 6007,
      "    .tp_": 6008,
      "  File \"<stdin>\", line ": 6009,
      "dir_fd ": 6010,
      "arithmetic ": 6011,
      "walk": 6012,
      "in <module>\n": 6013,
      "- The corresponding slot ID ": 6014,
      "'a": 6015,
      "-1, ": 6016,
      "11, ": 6017,
      "7\n": 6018,
      "Basi": 6019,
      "Email": 6020,
      "GREEN": 6021,
      "LIM": 6022,
      "TOC": 6023,
      "cu": 6024,
      "equival": 6025,
      "ix": 6026,
      "s):\n": 6027,
      "âs": 6028,
      ", and\n": 6029,
      ", where ": 6030,
      "atom": 6031,
      "    - The ": 6032,
      "echo": 6033,
      "lea": 6034,
      ". Each ": 6035,
      "simul": 6036,
      "so the ": 6037,
      "dom.": 6038,
      "interest": 6039,
      "Objects ": 6040,
      "functions are ": 6041,
      "may change ": 6042,
      "specified": 6043,
      "circ": 6044,
      "minor ": 6045,
      "canon": 6046,
      "implementations ": 6047,
      ". If no ": 6048,
      "configure ": 6049,
      "maintain": 6050,
      "representation of ": 6051,
      "number\n": 6052,
      "context manag": 6053,
      "dispatch": 6054,
      "always succeed": 6055,
      "converted ": 6056,
      "static": 6057,
      "Interf": 6058,
      "Calling ": 6059,
      "Install": 6060,
      "operating system ": 6061,
      "mechanism ": 6062,
      "Hello ": 6063,
      "category ": 6064,
      "together ": 6065,
      " Added in version 3.": 6066,
      "=1, ": 6067,
      "=Name(id='": 6068,
      "CO": 6069,
      "Dec": 6070,
      "M ": 6071,
      "[:": 6072,
      "_t ": 6073,
      "nap": 6074,
      "s=None)Â¶\n": 6075,
      "s in a ": 6076,
      ", all ": 6077,
      "ate, ": 6078,
      "an existing ": 6079,
      "lip": 6080,
      "concurrent ": 6081,
      "adecimal ": 6082,
      "ce\n": 6083,
      "spli": 6084,
      ".  When ": 6085,
      "this module ": 6086,
      "Python object ": 6087,
      "Python version": 6088,
      "int(": 6089,
      "Addi": 6090,
      "compared ": 6091,
      "method.\n": 6092,
      "when you ": 6093,
      "started ": 6094,
      "Referen": 6095,
      "doctest": 6096,
      "store ": 6097,
      "provides the ": 6098,
      "load_": 6099,
      "raised.\n": 6100,
      "cases, ": 6101,
      "decoding ": 6102,
      "s=False": 6103,
      "instead of": 6104,
      "distinc": 6105,
      "macOS ": 6106,
      "bar.": 6107,
      "limited ": 6108,
      "preserv": 6109,
      "    def __init__(self, ": 6110,
      "quote": 6111,
      "Assemb": 6112,
      "transport ": 6113,
      "tokeniz": 6114,
      "immediatel": 6115,
      "is the same as ": 6116,
      "NotImplemented": 6117,
      "Inherit": 6118,
      "duplic": 6119,
      "relevant ": 6120,
      "FILE": 6121,
      "Accepts a path-like ": 6122,
      "EOF": 6123,
      "PR": 6124,
      "Tcl ": 6125,
      "_W": 6126,
      "ded in ": 6127,
      "ef": 6128,
      "fm": 6129,
      "hard": 6130,
      "rp": 6131,
      "tl": 6132,
      "âll ": 6133,
      ", see ": 6134,
      "at.": 6135,
      "    for ": 6136,
      "lead ": 6137,
      "see\n": 6138,
      "meta": 6139,
      "users ": 6140,
      "concep": 6141,
      "made": 6142,
      "  - get": 6143,
      "it was ": 6144,
      "tell": 6145,
      "class_": 6146,
      "ly to ": 6147,
      "name.\n": 6148,
      "Python is ": 6149,
      "app.": 6150,
      "perf ": 6151,
      "] | ": 6152,
      "has the same ": 6153,
      "other than ": 6154,
      "list\n": 6155,
      "default\n": 6156,
      "\" ,\"": 6157,
      "multi-": 6158,
      "values for ": 6159,
      "counter ": 6160,
      "instance of ": 6161,
      "newline": 6162,
      "open() ": 6163,
      "stored ": 6164,
      "provided": 6165,
      "bytes.": 6166,
      "Comple": 6167,
      "replace ": 6168,
      "(PyObject *op": 6169,
      "ANY ": 6170,
      "interfaces ": 6171,
      "Divi": 6172,
      "values.\n": 6173,
      "shows ": 6174,
      "defaults to": 6175,
      "None:\n": 6176,
      "scope": 6177,
      "patch.": 6178,
      "loop.create_": 6179,
      "there are no ": 6180,
      "Instead": 6181,
      "lexi": 6182,
      "big": 6183,
      "mechanism": 6184,
      "Mapping": 6185,
      "greater than ": 6186,
      "label": 6187,
      "== '__main__": 6188,
      "earlier ": 6189,
      "background ": 6190,
      "fetch": 6191,
      "napsh": 6192,
      "01": 6193,
      "Cop": 6194,
      "DB": 6195,
      "More ": 6196,
      "Tar": 6197,
      "c:": 6198,
      "cf": 6199,
      "gen": 6200,
      "pdb": 6201,
      "push": 6202,
      "ta ": 6203,
      "to-": 6204,
      "a list of ": 6205,
      "or not ": 6206,
      "rot": 6207,
      "an optional ": 6208,
      "at most ": 6209,
      "may\n": 6210,
      "agr": 6211,
      "that was ": 6212,
      "__get": 6213,
      "returned.\n": 6214,
      "with an exception ": 6215,
      "can also ": 6216,
      "will always ": 6217,
      "lower ": 6218,
      "setattr": 6219,
      "export": 6220,
      "you should ": 6221,
      "method\n": 6222,
      "added to ": 6223,
      "Unlike ": 6224,
      "value. ": 6225,
      "RED": 6226,
      "s for more ": 6227,
      "****": 6228,
      "1.0": 6229,
      "number of bytes ": 6230,
      "instance.\n": 6231,
      "result of ": 6232,
      ".pyc ": 6233,
      "attribute\n": 6234,
      "sample ": 6235,
      "approach": 6236,
      "framework": 6237,
      "requirement": 6238,
      "Mock(": 6239,
      "Fraction": 6240,
      "language": 6241,
      "ast.dump(": 6242,
      "Asser": 6243,
      "  - Set the ": 6244,
      "CPython implementation detail": 6245,
      "Server ": 6246,
      "indent=4": 6247,
      "(obj, ": 6248,
      "isolated ": 6249,
      "correctly ": 6250,
      "RPC": 6251,
      "validat": 6252,
      "\")": 6253,
      "(&": 6254,
      "2,": 6255,
      "54": 6256,
      "Equal": 6257,
      "IO ": 6258,
      "_EV": 6259,
      "cmp": 6260,
      "catch": 6261,
      "eq": 6262,
      "x_": 6263,
      "ed up ": 6264,
      "is that ": 6265,
      "tion\n": 6266,
      "le_": 6267,
      "or is ": 6268,
      "dead": 6269,
      "usable ": 6270,
      "vers": 6271,
      "within a ": 6272,
      ">>> with ": 6273,
      "returning ": 6274,
      "trust": 6275,
      "ship ": 6276,
      "datatyp": 6277,
      "names of ": 6278,
      "symbol": 6279,
      "' (": 6280,
      "' , ": 6281,
      "create": 6282,
      "ending ": 6283,
      "00 ": 6284,
      "useful": 6285,
      "Stack": 6286,
      "Reg": 6287,
      "minim": 6288,
      "binding": 6289,
      "error, ": 6290,
      "Defin": 6291,
      "web ": 6292,
      "loader": 6293,
      "UTC ": 6294,
      "strip": 6295,
      "consider ": 6296,
      "about the ": 6297,
      "inherit ": 6298,
      "we can ": 6299,
      "Spam": 6300,
      "Warning\n": 6301,
      "owner": 6302,
      "Otherwise ": 6303,
      "Memory": 6304,
      "Data ": 6305,
      "purpose ": 6306,
      "PROG": 6307,
      "Group ": 6308,
      "logical ": 6309,
      "found, ": 6310,
      "however, ": 6311,
      "permission": 6312,
      "WebAssemb": 6313,
      "- window.": 6314,
      ")]\n": 6315,
      "4. ": 6316,
      "Gu": 6317,
      "cp": 6318,
      "faul": 6319,
      "gin ": 6320,
      "pment ": 6321,
      "s | ": 6322,
      "analy": 6323,
      "ded\n": 6324,
      "actions ": 6325,
      "exe ": 6326,
      "PyRun": 6327,
      "isFalse ": 6328,
      "visible ": 6329,
      "readline": 6330,
      "If a ": 6331,
      "give ": 6332,
      "; this ": 6333,
      "logging\n": 6334,
      "\" | \"": 6335,
      "ting to ": 6336,
      "0.00": 6337,
      "addresses ": 6338,
      "mailbox ": 6339,
      "socket.S": 6340,
      "under the ": 6341,
      ". The\n": 6342,
      "array.": 6343,
      "called_": 6344,
      "field is ": 6345,
      "map(": 6346,
      "cryp": 6347,
      "6: Accepts a path-like ": 6348,
      "affect": 6349,
      "therefore ": 6350,
      "lambda": 6351,
      "depending on the ": 6352,
      "treated as ": 6353,
      "user-defined ": 6354,
      "across ": 6355,
      "Abstr": 6356,
      "Do not ": 6357,
      "if __name__ == '__main__": 6358,
      "From ": 6359,
      "ast.dump(ast.parse": 6360,
      "')) ": 6361,
      ".add_": 6362,
      "Hand": 6363,
      "Sec": 6364,
      "Sof": 6365,
      "pse": 6366,
      "page": 6367,
      "s': ": 6368,
      "ting the ": 6369,
      "three": 6370,
      "delay": 6371,
      "site ": 6372,
      "and its ": 6373,
      "in that ": 6374,
      "in Python": 6375,
      "PyEval": 6376,
      "an attribute ": 6377,
      "() is an alias ": 6378,
      "while the ": 6379,
      "prot": 6380,
      "__', '": 6381,
      "functools.": 6382,
      "shutil.": 6383,
      "This is a ": 6384,
      "Python 2.": 6385,
      "by default ": 6386,
      "expla": 6387,
      ", the following ": 6388,
      "x in ": 6389,
      "specified, the ": 6390,
      "options.": 6391,
      "scripts ": 6392,
      "implements the ": 6393,
      "manual ": 6394,
      "supported by ": 6395,
      "non-zero ": 6396,
      "SS ": 6397,
      "expression\n": 6398,
      "something": 6399,
      "called, ": 6400,
      "approx": 6401,
      "approach ": 6402,
      "similar": 6403,
      "wrapped ": 6404,
      "avoid": 6405,
      ". See also ": 6406,
      "implement the ": 6407,
      "TYPE ": 6408,
      "simpli": 6409,
      "references to ": 6410,
      "prog.py ": 6411,
      "convenient ": 6412,
      "surrog": 6413,
      "_info.": 6414,
      "HTML ": 6415,
      "Equivalent to ": 6416,
      "Namespace(": 6417,
      "indent=4)) ": 6418,
      "',": 6419,
      "'>\n": 6420,
      "39": 6421,
      "79": 6422,
      "Get ": 6423,
      "List ": 6424,
      "Var ": 6425,
      "[T": 6426,
      "s-": 6427,
      "ants ": 6428,
      ", const char *": 6429,
      "ed using ": 6430,
      "is now ": 6431,
      "is created ": 6432,
      "    print(\"": 6433,
      "segment": 6434,
      "sist": 6435,
      "assume": 6436,
      "come": 6437,
      "ce(": 6438,
      ".  To ": 6439,
      "if the\n": 6440,
      "sys\n": 6441,
      "end_": 6442,
      "py\n": 6443,
      "Inclu": 6444,
      "â and ": 6445,
      "Now ": 6446,
      "used.": 6447,
      "1 = ": 6448,
      "C API": 6449,
      "minimum ": 6450,
      "type=": 6451,
      "ed, but ": 6452,
      "allow_": 6453,
      "Annot": 6454,
      "information on ": 6455,
      "start, ": 6456,
      "called.\n": 6457,
      "the same as ": 6458,
      "above, ": 6459,
      "tagOr": 6460,
      "Example: ": 6461,
      "$ python -m ": 6462,
      "regular expression ": 6463,
      "Support": 6464,
      "preferred ": 6465,
      "EventLo": 6466,
      "directory, ": 6467,
      "Unstable": 6468,
      "legacy ": 6469,
      "comprehension": 6470,
      "pixel": 6471,
      "Android": 6472,
      "Float": 6473,
      "Arg_Parse": 6474,
      "- The corresponding slot ID Py_": 6475,
      "(0, ": 6476,
      "):": 6477,
      "-- ": 6478,
      ".set_": 6479,
      "0,": 6480,
      "66": 6481,
      "70": 6482,
      "FIL": 6483,
      "HAS": 6484,
      "Mis": 6485,
      "_As": 6486,
      "ares": 6487,
      "care": 6488,
      "each": 6489,
      "ither ": 6490,
      "lz": 6491,
      "routin": 6492,
      "vol": 6493,
      "thet": 6494,
      "ane": 6495,
      "the current ": 6496,
      "ename": 6497,
      "    '": 6498,
      "- Module ": 6499,
      "mean ": 6500,
      "to create ": 6501,
      "div": 6502,
      "aby": 6503,
      "argv ": 6504,
      "pot": 6505,
      "name. ": 6506,
      "inten": 6507,
      "keep ": 6508,
      "select ": 6509,
      "compli": 6510,
      "functions.\n": 6511,
      "Intern": 6512,
      "module_": 6513,
      "process. ": 6514,
      "commonly ": 6515,
      "implementing ": 6516,
      "... >>> ": 6517,
      "            '": 6518,
      "support the ": 6519,
      "Handler.": 6520,
      "context manager": 6521,
      "aliases ": 6522,
      "gui": 6523,
      "normaliz": 6524,
      "implementation of ": 6525,
      "month ": 6526,
      "xmlrp": 6527,
      "also\n": 6528,
      "extract ": 6529,
      "looks ": 6530,
      "() method.\n": 6531,
      "RFC 9": 6532,
      "true if ": 6533,
      "associated with ": 6534,
      "attempt to ": 6535,
      "Acces": 6536,
      "memoryview ": 6537,
      "detect": 6538,
      "reason ": 6539,
      "PyErr_": 6540,
      "deprecated": 6541,
      "Raise ": 6542,
      "completely ": 6543,
      "type_param": 6544,
      "STACK[-1": 6545,
      "note that ": 6546,
      "subsequent ": 6547,
      "ttk.": 6548,
      "capture": 6549,
      "TOCOL": 6550,
      "(for example, ": 6551,
      ".pop": 6552,
      "1) ": 6553,
      "Boo": 6554,
      "METH": 6555,
      "OO": 6556,
      "Simple": 6557,
      "SION": 6558,
      "]])Â¶\n": 6559,
      "_ ": 6560,
      "fun": 6561,
      "four ": 6562,
      "iB": 6563,
      "i, ": 6564,
      "ker": 6565,
      "oct": 6566,
      "into": 6567,
      "ree.": 6568,
      "align": 6569,
      "seek": 6570,
      "- inspect": 6571,
      "demo": 6572,
      "sil": 6573,
      "nothing": 6574,
      "umm": 6575,
      "The default ": 6576,
      "again ": 6577,
      "  - Parameters:\n": 6578,
      "calling the ": 6579,
      ".  A": 6580,
      "dot": 6581,
      "post": 6582,
      "nel ": 6583,
      "names are ": 6584,
      "Python interpreter": 6585,
      "functions that ": 6586,
      "argument\n": 6587,
      "subprocess ": 6588,
      "module provides ": 6589,
      "out of ": 6590,
      "value) ": 6591,
      "must not ": 6592,
      "operate ": 6593,
      "0 and ": 6594,
      ". This is a ": 6595,
      "list of the ": 6596,
      "sys.path": 6597,
      "multipart": 6598,
      "changed ": 6599,
      ".Added in version 3.12.\n": 6600,
      "flow ": 6601,
      "meaning": 6602,
      "librari": 6603,
      "defined in the ": 6604,
      "click": 6605,
      "s=[ ": 6606,
      "queu": 6607,
      "refer to ": 6608,
      "required": 6609,
      "available.\n": 6610,
      "sorted(": 6611,
      "decorated ": 6612,
      "IPv6": 6613,
      "NotFound": 6614,
      "based on the ": 6615,
      "concrete ": 6616,
      "packages": 6617,
      "third-party ": 6618,
      "Linux >= ": 6619,
      "family ": 6620,
      "Create a ": 6621,
      "modify the ": 6622,
      "like this:\n": 6623,
      "Standard ": 6624,
      "part of the Stable ABI": 6625,
      "(int ": 6626,
      "(msg": 6627,
      ").  The ": 6628,
      ")  # ": 6629,
      "1,": 6630,
      "1/": 6631,
      "?\n": 6632,
      "Clo": 6633,
      "IX": 6634,
      "Pl": 6635,
      "UT ": 6636,
      "json": 6637,
      "s). ": 6638,
      "x is ": 6639,
      "ord ": 6640,
      "enabled ": 6641,
      ". Note ": 6642,
      "no_": 6643,
      "wish": 6644,
      "ce_": 6645,
      "strp": 6646,
      "ed: ": 6647,
      ".  A ": 6648,
      "return\n": 6649,
      "scap": 6650,
      "scroll": 6651,
      "time.\n": 6652,
      "' and ": 6653,
      "set to the ": 6654,
      "method, ": 6655,
      "laz": 6656,
      "State_": 6657,
      "passe": 6658,
      "have the following ": 6659,
      "s to a ": 6660,
      "contained ": 6661,
      "REC": 6662,
      "Whe": 6663,
      ".Added in version 3.11.\n": 6664,
      "ormat": 6665,
      "(self->": 6666,
      "there is a ": 6667,
      "Value ": 6668,
      "libraries ": 6669,
      "Named": 6670,
      ". Thread safety: ": 6671,
      "handlers.": 6672,
      "equivalent to the ": 6673,
      "entry": 6674,
      "uses a ": 6675,
      "mark ": 6676,
      "keyword arguments ": 6677,
      "zero-": 6678,
      "dependent ": 6679,
      "cache": 6680,
      "yield": 6681,
      "extension module": 6682,
      "[0] ": 6683,
      "ssl_": 6684,
      ".This function ": 6685,
      "supplied ": 6686,
      "primiti": 6687,
      "DEFAULT": 6688,
      "authentication ": 6689,
      "\".": 6690,
      ") the ": 6691,
      "Hash": 6692,
      "Lev": 6693,
      "_* ": 6694,
      "_on_": 6695,
      "b, ": 6696,
      "gc.": 6697,
      "hyp": 6698,
      "latter ": 6699,
      "slic": 6700,
      "s for the ": 6701,
      "s %(": 6702,
      "    /* ": 6703,
      ". F": 6704,
      "Thread ": 6705,
      "and return the ": 6706,
      "in order to ": 6707,
      "of that ": 6708,
      "construc": 6709,
      "at remote ": 6710,
      "who ": 6711,
      "suite ": 6712,
      "args = ": 6713,
      "spaces ": 6714,
      "tear": 6715,
      "class '": 6716,
      "except": 6717,
      "objects\n": 6718,
      "ould": 6719,
      "subclass": 6720,
      "file or ": 6721,
      "Conc": 6722,
      "code object ": 6723,
      "argument to ": 6724,
      "typedef ": 6725,
      "error_": 6726,
      "12, ": 6727,
      "sible": 6728,
      "first line ": 6729,
      "format, ": 6730,
      "NULL on failure": 6731,
      "size is ": 6732,
      ". All ": 6733,
      "key is ": 6734,
      "format string ": 6735,
      "statu": 6736,
      "bitwise ": 6737,
      "alias": 6738,
      "case the ": 6739,
      "ValueError": 6740,
      "futures": 6741,
      "Generator ": 6742,
      "hostname ": 6743,
      "Error is raised": 6744,
      "(fd, ": 6745,
      "try to ": 6746,
      "join(": 6747,
      "repeat": 6748,
      "depend ": 6749,
      "blue": 6750,
      "creates a ": 6751,
      "Encoding": 6752,
      "respectively": 6753,
      "Overflow": 6754,
      "synchronization ": 6755,
      "merg": 6756,
      "independent ": 6757,
      "Both ": 6758,
      "parsers.expat.": 6759,
      "at remote 0x": 6760,
      "'\\": 6761,
      "(p": 6762,
      "-v": 6763,
      "-only": 6764,
      "3-": 6765,
      "<class '": 6766,
      "=True ": 6767,
      "IT ": 6768,
      "U+": 6769,
      "dent": 6770,
      "mk": 6771,
      "orter": 6772,
      "another": 6773,
      "restrict": 6774,
      "enabl": 6775,
      "ensure": 6776,
      "meas": 6777,
      "an iterable ": 6778,
      "notes": 6779,
      "adjust": 6780,
      "are also ": 6781,
      "that you ": 6782,
      "caller": 6783,
      "isTrue ": 6784,
      "net ": 6785,
      "older ": 6786,
      "nameÂ¶\n": 6787,
      "reader": 6788,
      "e, the ": 6789,
      "have\n": 6790,
      "key)Â¶\n": 6791,
      "options, ": 6792,
      "operand ": 6793,
      "exec_": 6794,
      "handled ": 6795,
      "generate ": 6796,
      "s that the ": 6797,
      "Deprec": 6798,
      "called with ": 6799,
      "=None, *, ": 6800,
      "non-blocking ": 6801,
      "ip_": 6802,
      "parameter is ": 6803,
      "bytes, ": 6804,
      "notation ": 6805,
      "Codec": 6806,
      "types, ": 6807,
      "thread state": 6808,
      "_CON": 6809,
      "digit ": 6810,
      "ATE": 6811,
      "inherits ": 6812,
      "internally ": 6813,
      "asyncio.run(": 6814,
      "first, ": 6815,
      "classes, ": 6816,
      "high ": 6817,
      "Default ": 6818,
      "specifying the ": 6819,
      "Writer ": 6820,
      "cancell": 6821,
      "hexadecimal ": 6822,
      "Applic": 6823,
      "asynchronous generator ": 6824,
      "your\n": 6825,
      "WindowsPath('": 6826,
      "square ": 6827,
      "successful": 6828,
      "IMAP4.": 6829,
      "StopIter": 6830,
      "parser.parse_args(['": 6831,
      "Inheritance": 6832,
      "potenti": 6833,
      "(4": 6834,
      "1: ": 6835,
      "ET ": 6836,
      "Lim": 6837,
      "Pri": 6838,
      "Saf": 6839,
      "Vari": 6840,
      "_Add": 6841,
      "fn": 6842,
      "fer ": 6843,
      "f:\n": 6844,
      "na": 6845,
      "â.\n": 6846,
      "thus ": 6847,
      "ed when the ": 6848,
      "- When ": 6849,
      "- Returns a ": 6850,
      "ing with ": 6851,
      "illi": 6852,
      "urlo": 6853,
      "PyArg_Parse": 6854,
      ": def ": 6855,
      "master": 6856,
      "force ": 6857,
      "called to ": 6858,
      "of the current ": 6859,
      ">>> parser.add_argument('": 6860,
      "tation": 6861,
      "poly": 6862,
      "up the ": 6863,
      "in the range ": 6864,
      "time(": 6865,
      "able\n": 6866,
      "('192.0.2.": 6867,
      "compile ": 6868,
      "come ": 6869,
      "py_": 6870,
      "adds ": 6871,
      ", and then ": 6872,
      "identical ": 6873,
      "optionally ": 6874,
      "has not ": 6875,
      "used in the ": 6876,
      "INT": 6877,
      "0 to ": 6878,
      "pipe": 6879,
      "pipe ": 6880,
      "immutable ": 6881,
      "stdin ": 6882,
      "closing ": 6883,
      "locale": 6884,
      "open('": 6885,
      "index, ": 6886,
      "instance\n": 6887,
      "detailed ": 6888,
      "memory alloc": 6889,
      "sizeof": 6890,
      "password ": 6891,
      "( value=": 6892,
      "summ": 6893,
      "\\n'\n": 6894,
      "occurs ": 6895,
      "length of the ": 6896,
      "features": 6897,
      "PyObject *PyUnicode": 6898,
      "Use the ": 6899,
      "sligh": 6900,
      "Color": 6901,
      "[-h": 6902,
      "Future": 6903,
      "instruction": 6904,
      "Status": 6905,
      "assert_called_": 6906,
      "After ": 6907,
      "Charac": 6908,
      "invoke ": 6909,
      "Py_Initialize": 6910,
      "(str": 6911,
      "Another ": 6912,
      "PI": 6913,
      "UCS": 6914,
      "b = ": 6915,
      "go ": 6916,
      "man ": 6917,
      ", even ": 6918,
      "or None ": 6919,
      "ity, ": 6920,
      "such": 6921,
      "__(self": 6922,
      "names, ": 6923,
      "file(": 6924,
      "string_": 6925,
      "defined by ": 6926,
      "perio": 6927,
      "quick": 6928,
      "Exit ": 6929,
      "argument is a ": 6930,
      "containing a ": 6931,
      "list is ": 6932,
      "testing ": 6933,
      "was not ": 6934,
      "- class tkinter.": 6935,
      "fileno": 6936,
      ".  If\n": 6937,
      "Option ": 6938,
      "obj, ": 6939,
      "either the ": 6940,
      "tuple (": 6941,
      "- Set ": 6942,
      "values, ": 6943,
      "effecti": 6944,
      "order of ": 6945,
      "16 ": 6946,
      "Generator": 6947,
      "Also ": 6948,
      "widgetâs ": 6949,
      "stderr ": 6950,
      "larger ": 6951,
      "resolution ": 6952,
      ">>> print(ast.dump(ast.parse": 6953,
      "parser.add_option": 6954,
      "INFO ": 6955,
      "subject ": 6956,
      "State *": 6957,
      "pseu": 6958,
      "Level": 6959,
      "(data": 6960,
      "+\n": 6961,
      ".Raises an auditing event ": 6962,
      "0/": 6963,
      "76": 6964,
      "DOM": 6965,
      "FR": 6966,
      "PO": 6967,
      "Sta": 6968,
      "care ": 6969,
      "null ": 6970,
      "ptr": 6971,
      "src ": 6972,
      "inver": 6973,
      ", use ": 6974,
      "along ": 6975,
      "although ": 6976,
      ") {\n": 6977,
      "an argument ": 6978,
      "() and\n": 6979,
      "wide ": 6980,
      ": \"": 6981,
      "The Python ": 6982,
      "cell": 6983,
      "the__": 6984,
      ">>> turtle.": 6985,
      "if not ": 6986,
      "n = ": 6987,
      "int\n": 6988,
      "readable ": 6989,
      "object and ": 6990,
      "time\n": 6991,
      "use this ": 6992,
      "name of a ": 6993,
      "ffff": 6994,
      "0 .\n": 6995,
      "thread_": 6996,
      "implements ": 6997,
      "including the ": 6998,
      "responsible ": 6999,
      "new\n": 7000,
      "end the ": 7001,
      "end of ": 7002,
      "versions ": 7003,
      "interpreted as ": 7004,
      "result = ": 7005,
      "command line": 7006,
      "decode ": 7007,
      "effec": 7008,
      "phase ": 7009,
      "installation ": 7010,
      "msg ": 7011,
      "168.": 7012,
      "needed ": 7013,
      "Mean": 7014,
      "imagin": 7015,
      "db) ": 7016,
      "languages ": 7017,
      "Read-only ": 7018,
      "stop ": 7019,
      "regular expression": 7020,
      "XMLRPC": 7021,
      "cookie": 7022,
      "  - Set ": 7023,
      "CustomObject *": 7024,
      "depth": 7025,
      "PROTOCOL": 7026,
      "__name__": 7027,
      "children": 7028,
      "makes it ": 7029,
      "garbage collect": 7030,
      "(the default), ": 7031,
      "cleanup ": 7032,
      "How do ": 7033,
      "Error is raised.": 7034,
      "tool ": 7035,
      "probably ": 7036,
      "Turtle": 7037,
      "underscor": 7038,
      "amount of ": 7039,
      "PoolExecut": 7040,
      "always succeeds.\n": 7041,
      " of ": 7042,
      "BY": 7043,
      "Fe": 7044,
      "GN": 7045,
      "Mar": 7046,
      "Sem": 7047,
      "_name ": 7048,
      "aver": 7049,
      "ber ": 7050,
      "flexi": 7051,
      "ry ": 7052,
      "ring ": 7053,
      "enough ": 7054,
      "demon": 7055,
      "ace, ": 7056,
      "to do ": 7057,
      "asc": 7058,
      "magi": 7059,
      "forme": 7060,
      "ed. If ": 7061,
      "cls, ": 7062,
      "acket": 7063,
      "behave ": 7064,
      "by calling ": 7065,
      "imports ": 7066,
      "files.\n": 7067,
      "files are ": 7068,
      "gets ": 7069,
      "â (": 7070,
      "only one ": 7071,
      "] .\n": 7072,
      "finally ": 7073,
      ". This method ": 7074,
      "What ": 7075,
      "sys.argv": 7076,
      "orient": 7077,
      ".Added in version 3.7.\n": 7078,
      "error handler": 7079,
      ".Changed in version 3.3: ": 7080,
      ", or a ": 7081,
      "NULL .\n": 7082,
      "python-": 7083,
      "disabled ": 7084,
      "ITY": 7085,
      "accepted ": 7086,
      "clic ": 7087,
      "ignore ": 7088,
      "URI": 7089,
      "mode is ": 7090,
      "corresponding to the ": 7091,
      "preser": 7092,
      "timer": 7093,
      "during the ": 7094,
      "Time ": 7095,
      "DocTest": 7096,
      "unittest ": 7097,
      "codecs.": 7098,
      "resolv": 7099,
      "memoryview": 7100,
      "consistent ": 7101,
      "power": 7102,
      "strict ": 7103,
      "\": \"": 7104,
      "VERSION": 7105,
      "Formatter": 7106,
      "BSD ": 7107,
      "trigger": 7108,
      "qualified ": 7109,
      "Ellip": 7110,
      "and/or ": 7111,
      "() is an alias of": 7112,
      "demonstr": 7113,
      " .\n": 7114,
      "(key, ": 7115,
      "@dataclas": 7116,
      "DS": 7117,
      "LL": 7118,
      "Met": 7119,
      "Tcl": 7120,
      "_to_": 7121,
      "bla": 7122,
      "fc": 7123,
      "t-": 7124,
      "ual": 7125,
      "x\n": 7126,
      "ât\n": 7127,
      ") == ": 7128,
      "it, ": 7129,
      "in C": 7130,
      "tion of the ": 7131,
      "dimen": 7132,
      "at all": 7133,
      "() as ": 7134,
      "The first ": 7135,
      "that will be ": 7136,
      "ques": 7137,
      "typical ": 7138,
      "can now ": 7139,
      "having ": 7140,
      "functions:\n": 7141,
      "cursor": 7142,
      "from the\n": 7143,
      "Chil": 7144,
      "Invalid": 7145,
      "methods.\n": 7146,
      "ariz": 7147,
      "â a ": 7148,
      "string. ": 7149,
      "options are ": 7150,
      "examples ": 7151,
      "for the current ": 7152,
      "building ": 7153,
      "2 = ": 7154,
      "other)Â¶\n": 7155,
      ".Added in version 3.2.\n": 7156,
      "entity ": 7157,
      "standard": 7158,
      "data.\n": 7159,
      "executing ": 7160,
      "oughly ": 7161,
      ", but the ": 7162,
      "patch ": 7163,
      "daem": 7164,
      "correspond ": 7165,
      "corresponds ": 7166,
      "result in ": 7167,
      "is an optional ": 7168,
      "thatâs ": 7169,
      "work with ": 7170,
      "start()\n": 7171,
      "buffered ": 7172,
      "ecode": 7173,
      "PyTypeObject *": 7174,
      "PyObject_Call": 7175,
      "show_": 7176,
      "  - Return True if the ": 7177,
      "update ": 7178,
      "client.": 7179,
      "below.\n": 7180,
      "access to the ": 7181,
      "machine ": 7182,
      "Data": 7183,
      "heap ": 7184,
      "    if (": 7185,
      "youâll ": 7186,
      "bracket": 7187,
      "meaning as ": 7188,
      "MIME": 7189,
      "information about the ": 7190,
      "CRITIC": 7191,
      "Multiple ": 7192,
      "side_effect": 7193,
      "SMTP ": 7194,
      "AF_IN": 7195,
      "major ": 7196,
      "precedence ": 7197,
      "chapter ": 7198,
      "kind of ": 7199,
      "helper.": 7200,
      "#\n": 7201,
      "':": 7202,
      "(including ": 7203,
      "-9": 7204,
      "04": 7205,
      "MTP": 7206,
      "Rand": 7207,
      "X.": 7208,
      "YY": 7209,
      "s] ": 7210,
      "is used ": 7211,
      "tional": 7212,
      "y of ": 7213,
      "- ssl.": 7214,
      "dest ": 7215,
      "it.": 7216,
      "and not ": 7217,
      "PySequence": 7218,
      "distan": 7219,
      "() .  ": 7220,
      ": int ": 7221,
      "        print(": 7222,
      "profile ": 7223,
      "3.2.": 7224,
      "s, it ": 7225,
      "should\n": 7226,
      "name)\n": 7227,
      "scr": 7228,
      "setUp": 7229,
      "file object": 7230,
      "Inte": 7231,
      "methods\n": 7232,
      "modules.\n": 7233,
      "process_": 7234,
      "type and ": 7235,
      "variant ": 7236,
      "startup": 7237,
      "audi": 7238,
      "Regi": 7239,
      "objects that ": 7240,
      "Develo": 7241,
      "ways ": 7242,
      ".Added in version 3.4.\n": 7243,
      "               ": 7244,
      "OCAL": 7245,
      ", or None ": 7246,
      "allowed ": 7247,
      "stored in ": 7248,
      "mode.\n": 7249,
      "parse\n": 7250,
      "ALLO": 7251,
      "underst": 7252,
      "hash_": 7253,
      "register ": 7254,
      "- Sp": 7255,
      "In this ": 7256,
      "PYM": 7257,
      "attributes are ": 7258,
      "both the ": 7259,
      "passed in ": 7260,
      "factor": 7261,
      "lookup ": 7262,
      "3, 4, ": 7263,
      "Warning": 7264,
      "NOT": 7265,
      "'),\n": 7266,
      "Custom ": 7267,
      "critical ": 7268,
      "progres": 7269,
      "PyErr_Set": 7270,
      "features ": 7271,
      "192.168.": 7272,
      "I/O": 7273,
      "advanced ": 7274,
      "Content-Type ": 7275,
      "illu": 7276,
      "STRING": 7277,
      "console": 7278,
      "console ": 7279,
      "UUID": 7280,
      "timedelta(": 7281,
      "xmlrpc.": 7282,
      "%d": 7283,
      "'] = ": 7284,
      "(in ": 7285,
      "1', '": 7286,
      "5: The ": 7287,
      "Oc": 7288,
      "SER": 7289,
      "bz": 7290,
      "bel": 7291,
      "b' ": 7292,
      "fcn": 7293,
      "jump": 7294,
      "lan": 7295,
      "wd": 7296,
      "well": 7297,
      "eric ": 7298,
      ". P": 7299,
      "sive": 7300,
      "to this ": 7301,
      "ity.\n": 7302,
      "an error": 7303,
      "suffici": 7304,
      "do-": 7305,
      "share ": 7306,
      "update": 7307,
      "object to ": 7308,
      "able.\n": 7309,
      "complic": 7310,
      "methods and ": 7311,
      "Trace": 7312,
      "backwards ": 7313,
      "option.\n": 7314,
      "example:\n": 7315,
      "123": 7316,
      "- class typing.": 7317,
      "does not support ": 7318,
      "checking ": 7319,
      "UTC": 7320,
      "message.\n": 7321,
      "empty string ": 7322,
      "contents ": 7323,
      "Interpol": 7324,
      "bytearray": 7325,
      "sorted ": 7326,
      "part of ": 7327,
      "especi": 7328,
      "By default ": 7329,
      "Reader ": 7330,
      "themsel": 7331,
      "() function.\n": 7332,
      "specifying ": 7333,
      "modified ": 7334,
      "Import_": 7335,
      "python.org": 7336,
      "soft ": 7337,
      "with arguments": 7338,
      "IPv4Address('": 7339,
      "making ": 7340,
      "(PyObject *o)Â¶\n": 7341,
      "isinstance(": 7342,
      "- xml.parsers.expat.": 7343,
      "payload ": 7344,
      ".close()\n": 7345,
      "WSGI ": 7346,
      ". Any ": 7347,
      "strftime": 7348,
      "â or â": 7349,
      "explain": 7350,
      "Unstable_": 7351,
      "'}\n": 7352,
      ".Deprecated since version 3.": 7353,
      "02": 7354,
      "44": 7355,
      "Emp": 7356,
      "GU": 7357,
      "If": 7358,
      "Lin": 7359,
      "ODE": 7360,
      "Scre": 7361,
      "Win": 7362,
      "hint": 7363,
      "malloc": 7364,
      "nel": 7365,
      "wan": 7366,
      "}\")\n": 7367,
      ", n": 7368,
      "ated.\n": 7369,
      "is done ": 7370,
      "- math.": 7371,
      "delim": 7372,
      "accumul": 7373,
      "to make ": 7374,
      "PyList": 7375,
      "rie": 7376,
      "ed,\n": 7377,
      "call\n": 7378,
      "is:\n": 7379,
      ">>> for ": 7380,
      "will return ": 7381,
      "name)": 7382,
      "ation_": 7383,
      "functionsÂ¶\n": 7384,
      "s. For ": 7385,
      "emul": 7386,
      "x and ": 7387,
      "charset ": 7388,
      "process.\n": 7389,
      "key=": 7390,
      "lib\n": 7391,
      "Exc_": 7392,
      "have no ": 7393,
      "ENT_": 7394,
      "lists ": 7395,
      "line number ": 7396,
      "giving the ": 7397,
      "                 ": 7398,
      "ces of ": 7399,
      "tics ": 7400,
      "representation of the ": 7401,
      "terminal": 7402,
      "stored in the ": 7403,
      "message is ": 7404,
      "case, ": 7405,
      "): pass\n": 7406,
      "winfo": 7407,
      "stripp": 7408,
      "s=True": 7409,
      "corresponding to ": 7410,
      "tasks ": 7411,
      "helper ": 7412,
      "needs to be ": 7413,
      "success, ": 7414,
      "action=\"": 7415,
      "body": 7416,
      "necessary": 7417,
      "necessarily ": 7418,
      "letter ": 7419,
      "Process": 7420,
      "reverse ": 7421,
      "bytecode": 7422,
      "cmd": 7423,
      "async def main": 7424,
      "RuntimeError ": 7425,
      "device ": 7426,
      "TestCase ": 7427,
      "fallback": 7428,
      "Network": 7429,
      "dynamic ": 7430,
      "eggs": 7431,
      "browser": 7432,
      "that is, ": 7433,
      "elif ": 7434,
      "switch": 7435,
      "will be removed in version 3.": 7436,
      "regardless of ": 7437,
      "handshake": 7438,
      "Limit": 7439,
      " or ": 7440,
      "((": 7441,
      "(for ": 7442,
      "1)\n": 7443,
      "8\n": 7444,
      "EK": 7445,
      "Section": 7446,
      "Vie": 7447,
      "WI": 7448,
      "ga": 7449,
      "kind": 7450,
      "sis ": 7451,
      "eno ": 7452,
      "is used": 7453,
      "- Returns the ": 7454,
      ". See the ": 7455,
      "es, and ": 7456,
      "unk ": 7457,
      "note": 7458,
      "() call ": 7459,
      "cell ": 7460,
      "paralle": 7461,
      "isof": 7462,
      "it can ": 7463,
      ">>> parser = argparse.ArgumentParser": 7464,
      "in the Python ": 7465,
      "file. ": 7466,
      "files, ": 7467,
      "set.": 7468,
      "so that the ": 7469,
      "iteration ": 7470,
      "path\n": 7471,
      "pathname ": 7472,
      "specified in ": 7473,
      "specifies a ": 7474,
      "can be a ": 7475,
      "comment ": 7476,
      "ed by default": 7477,
      "1 | ": 7478,
      "current\n": 7479,
      "Param": 7480,
      "like a ": 7481,
      "10\n": 7482,
      "Note The ": 7483,
      "format.\n": 7484,
      "exception.\n": 7485,
      "entiti": 7486,
      "ating a ": 7487,
      "accessing ": 7488,
      "programs ": 7489,
      "0.0.": 7490,
      "allowing ": 7491,
      "1.0 ": 7492,
      "failure ": 7493,
      "standard library": 7494,
      "red to ": 7495,
      "s.  Th": 7496,
      "fixed ": 7497,
      "identify": 7498,
      "one-": 7499,
      "15.": 7500,
      ". Added in version 3.3.\n": 7501,
      "IPv4 ": 7502,
      "update(": 7503,
      "smtp": 7504,
      "create_task": 7505,
      "XML-": 7506,
      "setting the ": 7507,
      "859": 7508,
      "recursive ": 7509,
      "Request ": 7510,
      "queue.": 7511,
      "Parameter ": 7512,
      "reverse": 7513,
      "Alias": 7514,
      "Protocol ": 7515,
      "programming ": 7516,
      "ElementT": 7517,
      "HEAD": 7518,
      "RPC ": 7519,
      "addition to ": 7520,
      "Header": 7521,
      "Command": 7522,
      "example.com": 7523,
      "distinct ": 7524,
      "Division": 7525,
      "PyArg_ParseTuple": 7526,
      "dimension": 7527,
      "illustr": 7528,
      "''": 7529,
      "(s) ": 7530,
      "110, ": 7531,
      "7: The ": 7532,
      ":4": 7533,
      "DT": 7534,
      "EP": 7535,
      "Jav": 7536,
      "V ": 7537,
      "bus": 7538,
      "brok": 7539,
      "ld ": 7540,
      "os ": 7541,
      "osi": 7542,
      "ose ": 7543,
      "sour": 7544,
      "s;\n": 7545,
      "ution": 7546,
      "wr": 7547,
      "y-": 7548,
      "yes ": 7549,
      "z ": 7550,
      "zstd": 7551,
      "}'\n": 7552,
      "inputs ": 7553,
      "rest": 7554,
      "encode ": 7555,
      "env ": 7556,
      "almost ": 7557,
      "is called ": 7558,
      "seen ": 7559,
      ". | ": 7560,
      "consume": 7561,
      "added": 7562,
      "for the\n": 7563,
      "agg": 7564,
      "arg ": 7565,
      "so, ": 7566,
      "sole": 7567,
      "rati": 7568,
      "date.": 7569,
      "specialized ": 7570,
      "Object.": 7571,
      "you may ": 7572,
      "set to a ": 7573,
      "licen": 7574,
      "Consi": 7575,
      "defined, ": 7576,
      "self->": 7577,
      "persist": 7578,
      "run the ": 7579,
      "IND": 7580,
      "list.\n": 7581,
      ". This is the ": 7582,
      "text/": 7583,
      "such a ": 7584,
      "__ attribute ": 7585,
      "_SIZ": 7586,
      "14.": 7587,
      "every": 7588,
      "model": 7589,
      "model ": 7590,
      ".SSL": 7591,
      "template ": 7592,
      "ARG": 7593,
      "example of ": 7594,
      "passed as ": 7595,
      "describe ": 7596,
      "multiple thread": 7597,
      "refresh": 7598,
      "closed": 7599,
      "IDLE ": 7600,
      "transform": 7601,
      "signal.S": 7602,
      "convention": 7603,
      "_GetItem": 7604,
      "include the ": 7605,
      "specifying a ": 7606,
      "You can also ": 7607,
      "found in ": 7608,
      "OptionParser": 7609,
      "child process ": 7610,
      "re.compile": 7611,
      "place_": 7612,
      "applies ": 7613,
      "year, ": 7614,
      "causes ": 7615,
      "PurePosixPath('": 7616,
      "PureWindowsPath('": 7617,
      "single-": 7618,
      "BSD": 7619,
      "sentin": 7620,
      "MagicMock ": 7621,
      "Py_TPFLAGS_HA": 7622,
      "easy to ": 7623,
      "Delete ": 7624,
      "Proxy": 7625,
      "- stat.S": 7626,
      "TCP ": 7627,
      "split ": 7628,
      "Meaning ": 7629,
      "delimiter": 7630,
      "isoformat": 7631,
      "ParamSpec": 7632,
      "(10": 7633,
      "(i.e. ": 7634,
      ".read": 7635,
      "199": 7636,
      "20 ": 7637,
      "3. Changed in version 3.": 7638,
      "53": 7639,
      "55": 7640,
      "C.": 7641,
      "KiB": 7642,
      "OUT ": 7643,
      "Siz": 7644,
      "[key": 7645,
      "_var": 7646,
      "ee": 7647,
      "null": 7648,
      "ton": 7649,
      "tar ": 7650,
      "tware": 7651,
      "ume": 7652,
      "zip ": 7653,
      "ones ": 7654,
      "eriv": 7655,
      "or, ": 7656,
      "ren ": 7657,
      ", such as ": 7658,
      ", including ": 7659,
      "tili": 7660,
      "ed to": 7661,
      "ed by": 7662,
      "a â": 7663,
      "- @": 7664,
      ". You ": 7665,
      "ex ": 7666,
      "in your ": 7667,
      "construct ": 7668,
      "ter the ": 7669,
      "as long ": 7670,
      "() on ": 7671,
      "() ,\n": 7672,
      ": # ": 7673,
      "off ": 7674,
      "whate": 7675,
      "sule": 7676,
      "suffi": 7677,
      "  - _": 7678,
      "  - set_": 7679,
      "return-1 ": 7680,
      "ts the ": 7681,
      "lineno ": 7682,
      "experi": 7683,
      "char ": 7684,
      "] >>> ": 7685,
      "secret": 7686,
      "used with ": 7687,
      "written": 7688,
      "decre": 7689,
      "same as ": 7690,
      "bind ": 7691,
      "canv": 7692,
      "ABC ": 7693,
      "sys.stdout": 7694,
      "1, in <module>\n": 7695,
      "TypeError": 7696,
      "match_": 7697,
      "exception\n": 7698,
      "open_": 7699,
      "returned by the ": 7700,
      "systems ": 7701,
      "their own ": 7702,
      "values\n": 7703,
      "waiting ": 7704,
      "variable is ": 7705,
      "ATION": 7706,
      "marsh": 7707,
      "RFC": 7708,
      "local variable": 7709,
      "PyTypeObject.": 7710,
      "tkinter ": 7711,
      "Control": 7712,
      "Frame ": 7713,
      "IPv6 ": 7714,
      "operator.": 7715,
      "__main__ ": 7716,
      "Linux": 7717,
      "Week": 7718,
      "Timeout": 7719,
      "replacement": 7720,
      "SQL ": 7721,
      "DEBUG ": 7722,
      "whitespace": 7723,
      "frozen ": 7724,
      "partial": 7725,
      ") â The ": 7726,
      "square": 7727,
      "MAX": 7728,
      "shape": 7729,
      "more than one ": 7730,
      "parser.parse_args": 7731,
      "priority ": 7732,
      "decimal.": 7733,
      "tutori": 7734,
      "LogRecord ": 7735,
      "Support for ": 7736,
      "Distribu": 7737,
      "__', '__": 7738,
      "tagOrI": 7739,
      "silently ": 7740,
      "Inheritance: ": 7741,
      "Safe ": 7742,
      "parser.add_option(\"": 7743,
      "How do I ": 7744,
      "PyTypeObject.tp_": 7745,
      "(not ": 7746,
      "-f": 7747,
      "24 ": 7748,
      "BE": 7749,
      "H ": 7750,
      "MOD": 7751,
      "Sli": 7752,
      "_H": 7753,
      "_DE": 7754,
      "_factory ": 7755,
      "b.": 7756,
      "must": 7757,
      "milli": 7758,
      "ran": 7759,
      "s='": 7760,
      "tmp": 7761,
      "}, ": 7762,
      "};\n": 7763,
      "one, ": 7764,
      "one.": 7765,
      "antics ": 7766,
      "the first ": 7767,
      "    print('": 7768,
      "- Path.": 7769,
      "PyNumber": 7770,
      "bug ": 7771,
      "and'": 7772,
      "__ is ": 7773,
      "call is ": 7774,
      "returnFalse ": 7775,
      "This method ": 7776,
      "This is the ": 7777,
      "This function is ": 7778,
      "if the": 7779,
      "prepa": 7780,
      "process\n": 7781,
      "when it ": 7782,
      "value)\n": 7783,
      "runs ": 7784,
      "has an ": 7785,
      "Requi": 7786,
      "home ": 7787,
      "with the given ": 7788,
      "using the\n": 7789,
      ". If a ": 7790,
      "ABLE ": 7791,
      "sys.stdout ": 7792,
      "on the same ": 7793,
      "values of ": 7794,
      "counting ": 7795,
      "parameters are ": 7796,
      "') '": 7797,
      "dictionaries ": 7798,
      "- Return True if ": 7799,
      "items": 7800,
      "s for a ": 7801,
      "path to the ": 7802,
      "support for the ": 7803,
      "without the ": 7804,
      "create a new ": 7805,
      "behaves ": 7806,
      "AND": 7807,
      "output is ": 7808,
      "level=": 7809,
      "On the ": 7810,
      "SET": 7811,
      "given, the ": 7812,
      "quoted ": 7813,
      "dbm.": 7814,
      "Altern": 7815,
      "inherited ": 7816,
      "inserted ": 7817,
      "HTTP Sem": 7818,
      "Finaliz": 7819,
      "absolute": 7820,
      "close the ": 7821,
      "ascii.": 7822,
      "according to ": 7823,
      "side_effect ": 7824,
      "needed": 7825,
      "selection_": 7826,
      "store_true": 7827,
      "CPython implementation detail: ": 7828,
      "RFC 9110, ": 7829,
      "tearDown": 7830,
      "antics RFC 9110, ": 7831,
      "HTTP Semantics RFC 9110, ": 7832,
      "HTTP Semantics RFC 9110, Section ": 7833,
      "(5": 7834,
      "(d": 7835,
      "(target": 7836,
      "-to-": 7837,
      "._": 7838,
      ".execute": 7839,
      ".Default: ": 7840,
      "CT ": 7841,
      "Itâs ": 7842,
      "Let": 7843,
      "MS": 7844,
      "TWA": 7845,
      "_TypeÂ¶\n": 7846,
      "b\n": 7847,
      "ben": 7848,
      "ling ": 7849,
      "mim": 7850,
      "nat": 7851,
      "rint": 7852,
      "sed in ": 7853,
      "s' ": 7854,
      "snapsh": 7855,
      "t.\n": 7856,
      "ves": 7857,
      "well ": 7858,
      "x-": 7859,
      "y) ": 7860,
      "yet": 7861,
      "init ": 7862,
      "the default ": 7863,
      "ed with a ": 7864,
      "ingu": 7865,
      "seen": 7866,
      "- time.": 7867,
      "url ": 7868,
      "PyInterpreter": 7869,
      "dices": 7870,
      "as d": 7871,
      "fore": 7872,
      "forever": 7873,
      ".  For example, ": 7874,
      "| %": 7875,
      "returning a ": 7876,
      "object for ": 7877,
      "you need to ": 7878,
      "subtype ": 7879,
      "addr ": 7880,
      "; otherwise ": 7881,
      "name = ": 7882,
      "defining ": 7883,
      "performe": 7884,
      "1 + ": 7885,
      "variant": 7886,
      "list.": 7887,
      "                  ": 7888,
      "supported.\n": 7889,
      "matches the ": 7890,
      "dictionary, ": 7891,
      "2.6.": 7892,
      "localhost": 7893,
      "some other ": 7894,
      "opened ": 7895,
      "allows the ": 7896,
      "message and ": 7897,
      "obj is ": 7898,
      "fail ": 7899,
      "loader ": 7900,
      "s in this ": 7901,
      "tuple(": 7902,
      "_COM": 7903,
      "connect ": 7904,
      "Such ": 7905,
      "instead of the ": 7906,
      ".  This function ": 7907,
      ", this function ": 7908,
      "( body=[ ": 7909,
      "window.\n": 7910,
      "s = [": 7911,
      "provide the ": 7912,
      "Key ": 7913,
      "Alloc": 7914,
      "OFTWA": 7915,
      "handles ": 7916,
      "verbose ": 7917,
      "enabled": 7918,
      "lib import ": 7919,
      "Process ": 7920,
      "omitted, ": 7921,
      "Check ": 7922,
      "cyclic ": 7923,
      "whenever ": 7924,
      "Methods.": 7925,
      "disabled": 7926,
      "temporarily ": 7927,
      "advant": 7928,
      "pickle.": 7929,
      "compatible with ": 7930,
      "intended for ": 7931,
      "browser ": 7932,
      "- Get the ": 7933,
      "- Create a ": 7934,
      "PyObject*": 7935,
      "Coroutin": 7936,
      "syslog.": 7937,
      "C++ ": 7938,
      "placeholder": 7939,
      "equivalent": 7940,
      "lead to ": 7941,
      "if __name__ == '__main__':\n": 7942,
      "asyncio.run(main": 7943,
      "slightly ": 7944,
      "PYMEM": 7945,
      "signal.SIG": 7946,
      "!r": 7947,
      "(-": 7948,
      ".from_": 7949,
      ".See also ": 7950,
      "=3": 7951,
      "Call ": 7952,
      "La": 7953,
      "NS": 7954,
      "\\t": 7955,
      "b', '": 7956,
      "blob": 7957,
      "fast ": 7958,
      "hard ": 7959,
      "has\n": 7960,
      "job": 7961,
      "malloc ": 7962,
      "ted.\n": 7963,
      "thec": 7964,
      "thes": 7965,
      "then\n": 7966,
      "resiz": 7967,
      "relat": 7968,
      "is true, ": 7969,
      "- Con": 7970,
      "destruct": 7971,
      "loy": 7972,
      "of any ": 7973,
      "abiliti": 7974,
      "() instead.\n": 7975,
      "etc.": 7976,
      "__new": 7977,
      "__slot": 7978,
      "parsing": 7979,
      "it will be ": 7980,
      "poo": 7981,
      "in the current ": 7982,
      "atten": 7983,
      "hap": 7984,
      "object (": 7985,
      "('foo": 7986,
      "value to ": 7987,
      "may also be ": 7988,
      "options.\n": 7989,
      "int Py_": 7990,
      "contain a ": 7991,
      "find the ": 7992,
      "Mode": 7993,
      "such as\n": 7994,
      "integr": 7995,
      "frag": 7996,
      "NULL , ": 7997,
      "types of ": 7998,
      "Code ": 7999
    },
    "merges": [
      [
        "e",
        " "
      ],
      [
        "t",
        "h"
      ],
      [
        "s",
        " "
      ],
      [
        "i",
        "n"
      ],
      [
        " ",
        " "
      ],
      [
        "o",
        "n"
      ],
      [
        "e",
        "r"
      ],
      [
        "t",
        " "
      ],
      [
        "d",
        " "
      ],
      [
        "o",
        "r"
      ],
      [
        "a",
        "n"
      ],
      [
        "r",
        "e"
      ],
      [
        ",",
        " "
      ],
      [
        "th",
        "e "
      ],
      [
        "e",
        "n"
      ],
      [
        "t",
        "i"
      ],
      [
        "a",
        "l"
      ],
      [
        "a",
        "r"
      ],
      [
        "s",
        "t"
      ],
      [
        "e",
        "d "
      ],
      [
        "in",
        "g"
      ],
      [
        "a",
        "t"
      ],
      [
        " ",
        "the "
      ],
      [
        "i",
        "s "
      ],
      [
        "ti",
        "on"
      ],
      [
        "  ",
        "  "
      ],
      [
        "y",
        " "
      ],
      [
        "e",
        "c"
      ],
      [
        "t",
        "o"
      ],
      [
        "l",
        "e"
      ],
      [
        "s",
        "e"
      ],
      [
        "a",
        " "
      ],
      [
        "-",
        " "
      ],
      [
        ".",
        "\n"
      ],
      [
        "m",
        "e"
      ],
      [
        "f",
        " "
      ],
      [
        "ing",
        " "
      ],
      [
        "or",
        " "
      ],
      [
        ".",
        " "
      ],
      [
        "d",
        "e"
      ],
      [
        "o",
        "u"
      ],
      [
        "s",
        "i"
      ],
      [
        "a",
        "c"
      ],
      [
        ")",
        " "
      ],
      [
        "to",
        " "
      ],
      [
        "er",
        " "
      ],
      [
        "a",
        "s"
      ],
      [
        "i",
        "l"
      ],
      [
        "e",
        "x"
      ],
      [
        "r",
        "o"
      ],
      [
        "i",
        "t"
      ],
      [
        "l",
        "o"
      ],
      [
        "c",
        "o"
      ],
      [
        "u",
        "r"
      ],
      [
        "T",
        "h"
      ],
      [
        "m",
        "p"
      ],
      [
        "on",
        " "
      ],
      [
        "c",
        "h"
      ],
      [
        "an",
        "d "
      ],
      [
        "in",
        " "
      ],
      [
        "e",
        "s"
      ],
      [
        "u",
        "n"
      ],
      [
        "Â",
        "¶"
      ],
      [
        "Â¶",
        "\n"
      ],
      [
        "tion",
        " "
      ],
      [
        "u",
        "s"
      ],
      [
        "al",
        "l"
      ],
      [
        "P",
        "y"
      ],
      [
        ">",
        ">"
      ],
      [
        "e",
        "s "
      ],
      [
        "en",
        "t"
      ],
      [
        "an",
        " "
      ],
      [
        "n",
        "o"
      ],
      [
        "l",
        "i"
      ],
      [
        "f",
        "i"
      ],
      [
        "o",
        "f "
      ],
      [
        "u",
        "l"
      ],
      [
        "d",
        "i"
      ],
      [
        "a",
        "b"
      ],
      [
        "c",
        "on"
      ],
      [
        "a",
        "d"
      ],
      [
        "b",
        "j"
      ],
      [
        "v",
        "er"
      ],
      [
        "a",
        "t "
      ],
      [
        "t",
        "er"
      ],
      [
        "bj",
        "ec"
      ],
      [
        "a",
        "s "
      ],
      [
        "(",
        ") "
      ],
      [
        "b",
        "e "
      ],
      [
        "w",
        "i"
      ],
      [
        "u",
        "m"
      ],
      [
        "m",
        "o"
      ],
      [
        "e",
        "t"
      ],
      [
        ":",
        " "
      ],
      [
        "l",
        "e "
      ],
      [
        "m",
        "a"
      ],
      [
        "o",
        "f"
      ],
      [
        "r",
        "i"
      ],
      [
        "Th",
        "e "
      ],
      [
        "w",
        "h"
      ],
      [
        "v",
        "al"
      ],
      [
        "f",
        "or"
      ],
      [
        "re",
        "s"
      ],
      [
        "l",
        " "
      ],
      [
        "ur",
        "n"
      ],
      [
        "    ",
        "    "
      ],
      [
        "f",
        "or "
      ],
      [
        "c",
        "e"
      ],
      [
        "a",
        "g"
      ],
      [
        "a",
        "m"
      ],
      [
        "s",
        "u"
      ],
      [
        "o",
        "p"
      ],
      [
        "p",
        "ro"
      ],
      [
        "st",
        "r"
      ],
      [
        "b",
        "u"
      ],
      [
        "an",
        "d"
      ],
      [
        "e",
        "d"
      ],
      [
        "wi",
        "th"
      ],
      [
        "a",
        "me"
      ],
      [
        "c",
        "l"
      ],
      [
        "y",
        "p"
      ],
      [
        ")",
        "\n"
      ],
      [
        "en",
        " "
      ],
      [
        "al",
        " "
      ],
      [
        "ar",
        "e "
      ],
      [
        "ar",
        "g"
      ],
      [
        "th",
        "at "
      ],
      [
        "en",
        "t "
      ],
      [
        "_",
        "_"
      ],
      [
        "o",
        "bjec"
      ],
      [
        ":",
        "\n"
      ],
      [
        "  ",
        "- "
      ],
      [
        "un",
        "c"
      ],
      [
        "s",
        "o"
      ],
      [
        "si",
        "on "
      ],
      [
        "s",
        "p"
      ],
      [
        "=",
        " "
      ],
      [
        "re",
        "t"
      ],
      [
        ">",
        " "
      ],
      [
        "val",
        "u"
      ],
      [
        "p",
        "p"
      ],
      [
        "c",
        "all"
      ],
      [
        "of",
        " the "
      ],
      [
        "q",
        "u"
      ],
      [
        "f",
        "unc"
      ],
      [
        "p",
        "ar"
      ],
      [
        "i",
        "s"
      ],
      [
        "th",
        "e"
      ],
      [
        ")",
        "Â¶\n"
      ],
      [
        ".",
        "  "
      ],
      [
        "i",
        "t "
      ],
      [
        "d",
        "o"
      ],
      [
        "m",
        " "
      ],
      [
        "no",
        "t "
      ],
      [
        ">>",
        "> "
      ],
      [
        "t",
        "e"
      ],
      [
        "3",
        "."
      ],
      [
        "|",
        " "
      ],
      [
        "ed ",
        "in "
      ],
      [
        "cl",
        "as"
      ],
      [
        "t",
        "yp"
      ],
      [
        "l",
        "y "
      ],
      [
        "ret",
        "urn"
      ],
      [
        "ver",
        "sion "
      ],
      [
        "c",
        "e "
      ],
      [
        "de",
        "f"
      ],
      [
        "c",
        "k"
      ],
      [
        "s",
        ", "
      ],
      [
        "v",
        "i"
      ],
      [
        "th",
        "o"
      ],
      [
        "mo",
        "d"
      ],
      [
        "t",
        "r"
      ],
      [
        "Py",
        "th"
      ],
      [
        "e",
        "l"
      ],
      [
        "ch",
        " "
      ],
      [
        "s",
        "."
      ],
      [
        "mp",
        "le"
      ],
      [
        "t",
        "a"
      ],
      [
        "f",
        "ro"
      ],
      [
        ".",
        "."
      ],
      [
        "v",
        "e "
      ],
      [
        "version ",
        "3."
      ],
      [
        "t",
        "s "
      ],
      [
        "w",
        " "
      ],
      [
        "p",
        "o"
      ],
      [
        "with",
        " "
      ],
      [
        "c",
        "t"
      ],
      [
        "w",
        "il"
      ],
      [
        "r",
        "a"
      ],
      [
        "an",
        "g"
      ],
      [
        "s",
        "h"
      ],
      [
        "c",
        "an "
      ],
      [
        "me",
        "tho"
      ],
      [
        "b",
        "y"
      ],
      [
        "s",
        "t "
      ],
      [
        "d",
        "at"
      ],
      [
        "ac",
        "k"
      ],
      [
        "n",
        "e"
      ],
      [
        "Th",
        "is "
      ],
      [
        "am",
        "e "
      ],
      [
        "wil",
        "l "
      ],
      [
        "ab",
        "le "
      ],
      [
        "th",
        "is "
      ],
      [
        "ed in ",
        "version 3."
      ],
      [
        "ce",
        "p"
      ],
      [
        "ec",
        "i"
      ],
      [
        "c",
        "es"
      ],
      [
        "b",
        "e"
      ],
      [
        "a",
        "tion "
      ],
      [
        "o",
        "l"
      ],
      [
        "i",
        "f "
      ],
      [
        "n",
        " "
      ],
      [
        "arg",
        "um"
      ],
      [
        "n",
        "ame"
      ],
      [
        "f",
        "il"
      ],
      [
        "Pyth",
        "on "
      ],
      [
        "y",
        "ou"
      ],
      [
        "in",
        "st"
      ],
      [
        "b",
        "y "
      ],
      [
        "d",
        "e "
      ],
      [
        "in",
        "t"
      ],
      [
        "u",
        "t"
      ],
      [
        "m",
        "ent"
      ],
      [
        "s",
        "y"
      ],
      [
        "l",
        "in"
      ],
      [
        "s",
        "er"
      ],
      [
        "k",
        "e"
      ],
      [
        "a",
        "tion"
      ],
      [
        "f",
        "er"
      ],
      [
        "a",
        "ul"
      ],
      [
        "N",
        "on"
      ],
      [
        "clas",
        "s "
      ],
      [
        "u",
        "p"
      ],
      [
        "c",
        " "
      ],
      [
        "to",
        " the "
      ],
      [
        "re",
        "ad"
      ],
      [
        "in",
        "ter"
      ],
      [
        "in",
        " the "
      ],
      [
        "at",
        "e "
      ],
      [
        "I",
        "f "
      ],
      [
        "o",
        "th"
      ],
      [
        ",",
        "\n"
      ],
      [
        "s",
        "e "
      ],
      [
        "e",
        ", "
      ],
      [
        "lo",
        "w"
      ],
      [
        "p",
        "a"
      ],
      [
        "'",
        ", "
      ],
      [
        "p",
        "re"
      ],
      [
        "-",
        "-"
      ],
      [
        "or",
        "t"
      ],
      [
        "wh",
        "i"
      ],
      [
        "for",
        "m"
      ],
      [
        "def",
        "aul"
      ],
      [
        "at",
        "t"
      ],
      [
        "t",
        "e "
      ],
      [
        "A",
        "d"
      ],
      [
        "o",
        " "
      ],
      [
        "s",
        "c"
      ],
      [
        "sp",
        "eci"
      ],
      [
        "h",
        "a"
      ],
      [
        "ed ",
        "to "
      ],
      [
        "se",
        "l"
      ],
      [
        "or",
        "t "
      ],
      [
        "objec",
        "t "
      ],
      [
        "O",
        "bjec"
      ],
      [
        "u",
        "le"
      ],
      [
        "ti",
        "me"
      ],
      [
        "at",
        "e"
      ],
      [
        "ex",
        "cep"
      ],
      [
        "ab",
        "le"
      ],
      [
        "i",
        "mp"
      ],
      [
        "(",
        "'"
      ],
      [
        "ri",
        "bu"
      ],
      [
        "s",
        ".\n"
      ],
      [
        "us",
        "e "
      ],
      [
        "objec",
        "t"
      ],
      [
        "func",
        "tion "
      ],
      [
        "ou",
        "n"
      ],
      [
        "co",
        "mp"
      ],
      [
        "'",
        " "
      ],
      [
        "fi",
        "le"
      ],
      [
        "R",
        "et"
      ],
      [
        "func",
        "tion"
      ],
      [
        "r",
        "r"
      ],
      [
        "#",
        " "
      ],
      [
        "s",
        ". "
      ],
      [
        "Ad",
        "d"
      ],
      [
        "c",
        "ur"
      ],
      [
        "whi",
        "ch "
      ],
      [
        "E",
        "rr"
      ],
      [
        "Ret",
        "urn"
      ],
      [
        "s",
        "\n"
      ],
      [
        "w",
        "or"
      ],
      [
        "se",
        "t"
      ],
      [
        "valu",
        "e "
      ],
      [
        "t",
        "ex"
      ],
      [
        "at",
        "ed "
      ],
      [
        " ",
        "is "
      ],
      [
        "fro",
        "m "
      ],
      [
        "n",
        "um"
      ],
      [
        "c",
        "re"
      ],
      [
        "ou",
        "l"
      ],
      [
        "ing",
        " the "
      ],
      [
        "e",
        "m"
      ],
      [
        "ex",
        "p"
      ],
      [
        "er",
        "r"
      ],
      [
        "en",
        "d"
      ],
      [
        "g",
        "i"
      ],
      [
        "se",
        "s "
      ],
      [
        "the",
        "\n"
      ],
      [
        "w",
        "a"
      ],
      [
        "g",
        "et"
      ],
      [
        "so",
        " "
      ],
      [
        "co",
        "m"
      ],
      [
        "C",
        "h"
      ],
      [
        "you",
        " "
      ],
      [
        "oul",
        "d "
      ],
      [
        "g",
        "n"
      ],
      [
        "v",
        "e"
      ],
      [
        "argum",
        "ent"
      ],
      [
        "t",
        "er "
      ],
      [
        "su",
        "b"
      ],
      [
        "0",
        "0"
      ],
      [
        "p",
        "y"
      ],
      [
        "fil",
        "e "
      ],
      [
        "I",
        "n"
      ],
      [
        "m",
        "e "
      ],
      [
        "su",
        "pp"
      ],
      [
        "ex",
        "a"
      ],
      [
        "k",
        " "
      ],
      [
        "re",
        "p"
      ],
      [
        "er",
        "e "
      ],
      [
        ", ",
        "the "
      ],
      [
        "se",
        "t "
      ],
      [
        "â",
        "s "
      ],
      [
        "metho",
        "d"
      ],
      [
        "mod",
        "ule"
      ],
      [
        "g",
        "h"
      ],
      [
        "ad",
        "d"
      ],
      [
        "x",
        " "
      ],
      [
        "ac",
        "h"
      ],
      [
        "ch",
        "ar"
      ],
      [
        "re",
        "n"
      ],
      [
        "it",
        "er"
      ],
      [
        "s ",
        "are "
      ],
      [
        "pa",
        "th"
      ],
      [
        "lo",
        "c"
      ],
      [
        "(",
        ")"
      ],
      [
        "all",
        " "
      ],
      [
        "|",
        "\n"
      ],
      [
        "ar",
        "i"
      ],
      [
        "a",
        "il"
      ],
      [
        "att",
        "ribu"
      ],
      [
        "m",
        "or"
      ],
      [
        "ul",
        "e "
      ],
      [
        "si",
        "on"
      ],
      [
        "r",
        " "
      ],
      [
        "i",
        "z"
      ],
      [
        "inst",
        "an"
      ],
      [
        "â",
        " "
      ],
      [
        "l",
        "a"
      ],
      [
        "ou",
        "t"
      ],
      [
        "e",
        "t "
      ],
      [
        "a",
        "d "
      ],
      [
        ", ",
        "and "
      ],
      [
        "f",
        " the "
      ],
      [
        "g",
        "g"
      ],
      [
        "ar",
        "y "
      ],
      [
        "Ch",
        "ang"
      ],
      [
        "ma",
        "y "
      ],
      [
        "speci",
        "fi"
      ],
      [
        ";",
        " "
      ],
      [
        "T",
        "r"
      ],
      [
        "us",
        "t "
      ],
      [
        "s",
        "s"
      ],
      [
        "and",
        "l"
      ],
      [
        "can ",
        "be "
      ],
      [
        "a",
        "pp"
      ],
      [
        "str",
        "ing"
      ],
      [
        "Chang",
        "ed in version 3."
      ],
      [
        "k",
        "e "
      ],
      [
        "N",
        "o"
      ],
      [
        "return",
        " "
      ],
      [
        "d",
        "er"
      ],
      [
        "l",
        "y"
      ],
      [
        "e",
        "v"
      ],
      [
        "n",
        "ame "
      ],
      [
        "g",
        "r"
      ],
      [
        "pro",
        "ces"
      ],
      [
        "sc",
        "ri"
      ],
      [
        "ag",
        "e "
      ],
      [
        "Add",
        "ed in version 3."
      ],
      [
        "li",
        "c"
      ],
      [
        "mod",
        "ule "
      ],
      [
        "p",
        "r"
      ],
      [
        "ec",
        "t"
      ],
      [
        "metho",
        "d "
      ],
      [
        "Py",
        "Objec"
      ],
      [
        "b",
        "ack"
      ],
      [
        "d",
        "ing "
      ],
      [
        "typ",
        "e "
      ],
      [
        "A",
        " "
      ],
      [
        "C",
        "on"
      ],
      [
        ". ",
        "The "
      ],
      [
        "i",
        "d"
      ],
      [
        "o",
        "o"
      ],
      [
        "ke",
        "y"
      ],
      [
        "def",
        "in"
      ],
      [
        "a",
        "p"
      ],
      [
        "li",
        "b"
      ],
      [
        "num",
        "b"
      ],
      [
        "sel",
        "f"
      ],
      [
        "f",
        "ol"
      ],
      [
        "op",
        "tion"
      ],
      [
        "str",
        "ing "
      ],
      [
        "c",
        "or"
      ],
      [
        "co",
        "de "
      ],
      [
        "U",
        "n"
      ],
      [
        "e",
        "ad"
      ],
      [
        "s ",
        "the "
      ],
      [
        "on",
        "ly "
      ],
      [
        "an",
        "y "
      ],
      [
        "t",
        "es"
      ],
      [
        "co",
        "l"
      ],
      [
        "com",
        "m"
      ],
      [
        "in",
        "t "
      ],
      [
        "u",
        "se"
      ],
      [
        "c",
        "i"
      ],
      [
        "ed ",
        "by "
      ],
      [
        "ou",
        "t "
      ],
      [
        "en",
        "er"
      ],
      [
        "di",
        "c"
      ],
      [
        "re",
        "ct"
      ],
      [
        "on",
        "e "
      ],
      [
        "fro",
        "m"
      ],
      [
        "p",
        "er"
      ],
      [
        "wh",
        "en "
      ],
      [
        "u",
        "e"
      ],
      [
        "a",
        "se"
      ],
      [
        "si",
        "z"
      ],
      [
        "=",
        "="
      ],
      [
        "qu",
        "i"
      ],
      [
        "exa",
        "mple"
      ],
      [
        "t ",
        "*"
      ],
      [
        "r",
        "it"
      ],
      [
        "p",
        " "
      ],
      [
        "ac",
        "e"
      ],
      [
        "S",
        "t"
      ],
      [
        "1",
        " "
      ],
      [
        "fi",
        "g"
      ],
      [
        "p",
        "as"
      ],
      [
        "valu",
        "e"
      ],
      [
        "ou",
        "r"
      ],
      [
        "no",
        " "
      ],
      [
        "E",
        "x"
      ],
      [
        "fol",
        "low"
      ],
      [
        "-",
        "\n"
      ],
      [
        "]",
        " "
      ],
      [
        "ar",
        " "
      ],
      [
        "', ",
        "'"
      ],
      [
        "co",
        "de"
      ],
      [
        "sh",
        "ould "
      ],
      [
        "s",
        "ec"
      ],
      [
        "con",
        "ta"
      ],
      [
        "r",
        "un"
      ],
      [
        "ha",
        "ve "
      ],
      [
        "lo",
        "ck"
      ],
      [
        "fer",
        "en"
      ],
      [
        "h",
        "as "
      ],
      [
        "it",
        "s "
      ],
      [
        "v",
        "ari"
      ],
      [
        "t",
        "es "
      ],
      [
        "bu",
        "t "
      ],
      [
        "u",
        "e "
      ],
      [
        "m",
        "ust "
      ],
      [
        "is ",
        "a "
      ],
      [
        "as",
        "e "
      ],
      [
        "=",
        "Non"
      ],
      [
        "me",
        "ss"
      ],
      [
        "S",
        "e"
      ],
      [
        "si",
        "gn"
      ],
      [
        "oth",
        "er "
      ],
      [
        "F",
        "or "
      ],
      [
        "a",
        "ti"
      ],
      [
        "al",
        "so "
      ],
      [
        ")",
        ", "
      ],
      [
        "C",
        " "
      ],
      [
        "par",
        "ame"
      ],
      [
        "m",
        "ent "
      ],
      [
        "L",
        " "
      ],
      [
        "f",
        "l"
      ],
      [
        "at",
        "ch"
      ],
      [
        "us",
        "ed "
      ],
      [
        "cur",
        "ren"
      ],
      [
        "T",
        "yp"
      ],
      [
        "Err",
        "or "
      ],
      [
        "will ",
        "be "
      ],
      [
        "f",
        "f"
      ],
      [
        "di",
        "rect"
      ],
      [
        "st",
        "ar"
      ],
      [
        "b",
        "o"
      ],
      [
        "imp",
        "ort "
      ],
      [
        "u",
        "re"
      ],
      [
        "Py",
        "_"
      ],
      [
        "s ",
        "to "
      ],
      [
        "i",
        "mple"
      ],
      [
        "s",
        "Â¶\n"
      ],
      [
        "pr",
        "int"
      ],
      [
        "P",
        "ar"
      ],
      [
        "w",
        "rit"
      ],
      [
        "scri",
        "p"
      ],
      [
        "o",
        "w"
      ],
      [
        "do",
        "w"
      ],
      [
        "th",
        "er "
      ],
      [
        "op",
        "er"
      ],
      [
        "for",
        " the "
      ],
      [
        "pro",
        "vi"
      ],
      [
        "E",
        "N"
      ],
      [
        "PyObjec",
        "t *"
      ],
      [
        "I",
        "N"
      ],
      [
        "0",
        " "
      ],
      [
        "y",
        "n"
      ],
      [
        "str",
        "u"
      ],
      [
        "argum",
        "ent "
      ],
      [
        "e",
        "st"
      ],
      [
        "(",
        ")\n"
      ],
      [
        "char",
        "ac"
      ],
      [
        "d",
        "ec"
      ],
      [
        "li",
        "st"
      ],
      [
        "Return",
        " "
      ],
      [
        "a",
        "v"
      ],
      [
        "s ",
        "and "
      ],
      [
        "lin",
        "e "
      ],
      [
        "ex",
        "ec"
      ],
      [
        "res",
        "ul"
      ],
      [
        "dat",
        "a "
      ],
      [
        "f",
        "in"
[...]
