{
  "version": "1.0",
  "truncation": null,
  "padding": null,
  "added_tokens": [
    {
      "id": 0,
      "content": "<UNK>",
      "single_word": false,
      "lstrip": false,
      "rstrip": false,
      "normalized": false,
      "special": true
    },
    {
      "id": 1,
      "content": "<PAD>",
      "single_word": false,
      "lstrip": false,
      "rstrip": false,
      "normalized": false,
      "special": true
    },
    {
      "id": 2,
      "content": "<BOS>",
      "single_word": false,
      "lstrip": false,
      "rstrip": false,
      "normalized": false,
      "special": true
    },
    {
      "id": 3,
      "content": "<EOS>",
      "single_word": false,
      "lstrip": false,
      "rstrip": false,
      "normalized": false,
      "special": true
    }
  ],
  "normalizer": null,
  "pre_tokenizer": null,
  "post_processor": null,
  "decoder": null,
  "model": {
    "type": "BPE",
    "dropout": null,
    "unk_token": "<UNK>",
    "continuing_subword_prefix": null,
    "end_of_word_suffix": null,
    "fuse_unk": false,
    "byte_fallback": false,
    "ignore_merges": false,
    "vocab": {
      "<UNK>": 0,
      "<PAD>": 1,
      "<BOS>": 2,
      "<EOS>": 3,
      " ": 4,
      "'": 5,
      ",": 6,
      "-": 7,
      ".": 8,
      "A": 9,
      "B": 10,
      "C": 11,
      "D": 12,
      "E": 13,
      "F": 14,
      "G": 15,
      "H": 16,
      "I": 17,
      "J": 18,
      "K": 19,
      "L": 20,
      "M": 21,
      "N": 22,
      "O": 23,
      "P": 24,
      "R": 25,
      "S": 26,
      "T": 27,
      "U": 28,
      "V": 29,
      "W": 30,
      "Y": 31,
      "Z": 32,
      "a": 33,
      "b": 34,
      "c": 35,
      "d": 36,
      "e": 37,
      "f": 38,
      "g": 39,
      "h": 40,
      "i": 41,
      "j": 42,
      "k": 43,
      "l": 44,
      "m": 45,
      "n": 46,
      "o": 47,
      "p": 48,
      "q": 49,
      "r": 50,
      "s": 51,
      "t": 52,
      "u": 53,
      "v": 54,
      "w": 55,
      "x": 56,
      "y": 57,
      "z": 58,
      "ä": 59,
      "ç": 60,
      "é": 61,
      "ñ": 62,
      "ó": 63,
      "ı": 64,
      " a": 65,
      "d ": 66,
      "er": 67,
      "e ": 68,
      "in": 69,
      " c": 70,
      "on": 71,
      "or": 72,
      "it": 73,
      "ed ": 74,
      ", ": 75,
      "es": 76,
      "is": 77,
      " an": 78,
      "t ": 79,
      "ea": 80,
      "om": 81,
      ". ": 82,
      " and ": 83,
      "y ": 84,
      "la": 85,
      "ic": 86,
      "ha": 87,
      "al": 88,
      "en": 89,
      " t": 90,
      "an": 91,
      ". I": 92,
      "at": 93,
      "il": 94,
      "ith": 95,
      "with": 96,
      " s": 97,
      "ar": 98,
      "ing": 99,
      " f": 100,
      ". It ": 101,
      "re": 102,
      "vor": 103,
      " b": 104,
      "lavor": 105,
      " is": 106,
      "ee": 107,
      "ro": 108,
      " m": 109,
      "ru": 110,
      "ly ": 111,
      "mon": 112,
      "ra": 113,
      "ion": 114,
      "wee": 115,
      " com": 116,
      "of": 117,
      "th": 118,
      "ed with": 119,
      "has": 120,
      "ilk": 121,
      " p": 122,
      " tea": 123,
      "bin": 124,
      "as": 125,
      "rom": 126,
      "weet": 127,
      "us": 128,
      "de ": 129,
      "ver": 130,
      "ol": 131,
      "ruit": 132,
      "has a": 133,
      ", and ": 134,
      "le": 135,
      " is a": 136,
      " or": 137,
      " flavor": 138,
      "oc": 139,
      "flavor": 140,
      "ater": 141,
      "ag": 142,
      "ade ": 143,
      " w": 144,
      "ever": 145,
      "e c": 146,
      "li": 147,
      "ter": 148,
      "everag": 149,
      ", s": 150,
      "rea": 151,
      " combin": 152,
      ". It is": 153,
      "ch": 154,
      "pic": 155,
      ". It has a": 156,
      "oth": 157,
      " with": 158,
      "res": 159,
      "ally ": 160,
      " d": 161,
      "am": 162,
      " g": 163,
      "ed": 164,
      ", or": 165,
      "ream": 166,
      "he ": 167,
      "ur": 168,
      "pp": 169,
      "ang": 170,
      " in": 171,
      "ent": 172,
      "ju": 173,
      "tea": 174,
      "ri": 175,
      "juic": 176,
      " arom": 177,
      ". It": 178,
      ", c": 179,
      "ut": 180,
      " can": 181,
      "el": 182,
      "ta": 183,
      "od": 184,
      "ber": 185,
      "milk": 186,
      " common": 187,
      "ink": 188,
      "ong": 189,
      " milk": 190,
      "s.": 191,
      "erv": 192,
      " con": 193,
      "ener": 194,
      "gh": 195,
      "from": 196,
      "dit": 197,
      "off": 198,
      " fruit": 199,
      "e is": 200,
      "her": 201,
      "rink": 202,
      "sweet": 203,
      "uc": 204,
      " combines": 205,
      " as": 206,
      " st": 207,
      "everage ": 208,
      "ed b": 209,
      "rac": 210,
      "fruit": 211,
      "ation": 212,
      " sweet": 213,
      "le ": 214,
      "lemon": 215,
      "ly": 216,
      "other": 217,
      " of": 218,
      "Tea": 219,
      "par": 220,
      "um": 221,
      " cha": 222,
      "erved ": 223,
      "ess": 224,
      " and c": 225,
      "racter": 226,
      "reen": 227,
      "di": 228,
      " the ": 229,
      "offe": 230,
      "ti": 231,
      "y, ": 232,
      "herb": 233,
      "ombin": 234,
      "end": 235,
      "ing ": 236,
      "un": 237,
      "resh": 238,
      "ast": 239,
      " al": 240,
      "ed with ": 241,
      " commonly ": 242,
      "mo": 243,
      "served ": 244,
      "ade from": 245,
      " water": 246,
      "ex": 247,
      "ry ": 248,
      "water": 249,
      "ck": 250,
      "so": 251,
      "ut ": 252,
      " car": 253,
      " aroma": 254,
      "tain": 255,
      "lor": 256,
      "lack": 257,
      "dition": 258,
      "loral": 259,
      "ist": 260,
      "inger": 261,
      ". It can": 262,
      "ligh": 263,
      " juic": 264,
      "ve": 265,
      "ango": 266,
      " n": 267,
      " be ": 268,
      "oco": 269,
      "enerally ": 270,
      "itru": 271,
      "e combin": 272,
      " character": 273,
      "itrus": 274,
      ".C": 275,
      "ow": 276,
      "ed c": 277,
      " pro": 278,
      "ci": 279,
      "bon": 280,
      "bas": 281,
      "ot": 282,
      "ten": 283,
      "radition": 284,
      "st": 285,
      "ext": 286,
      "duc": 287,
      "ool": 288,
      "ure": 289,
      "pical": 290,
      "lu": 291,
      "to": 292,
      "gar": 293,
      "fus": 294,
      " cream": 295,
      "lat": 296,
      "ropical": 297,
      "herbal": 298,
      " other": 299,
      "e, ": 300,
      " and": 301,
      "repar": 302,
      ", and s": 303,
      ". T": 304,
      "lend": 305,
      "pro": 306,
      "ugar": 307,
      "roast": 308,
      " Tea": 309,
      "drink": 310,
      "ff": 311,
      "ma": 312,
      "si": 313,
      "ice": 314,
      "weet ": 315,
      "offee ": 316,
      "mooth": 317,
      "rong": 318,
      "-li": 319,
      "yru": 320,
      " ch": 321,
      "pices": 322,
      "berry ": 323,
      "light": 324,
      "yrup": 325,
      " S": 326,
      ".M": 327,
      "fresh": 328,
      " made from": 329,
      "ocon": 330,
      "reen tea": 331,
      "-lik": 332,
      " lemon": 333,
      "ir": 334,
      "yo": 335,
      "arm": 336,
      "ingre": 337,
      " infus": 338,
      " contain": 339,
      "e is a": 340,
      "ingredi": 341,
      " C": 342,
      "made ": 343,
      "ves": 344,
      " and is": 345,
      "alt": 346,
      " tradition": 347,
      ".P": 348,
      "floral": 349,
      "ness": 350,
      "ul": 351,
      " aci": 352,
      "olor": 353,
      "ingredient": 354,
      " beverage ": 355,
      "lack tea": 356,
      "-bas": 357,
      "s, ": 358,
      "ear": 359,
      "y b": 360,
      "ocolat": 361,
      "raw": 362,
      ", sweet": 363,
      " carbon": 364,
      ". The ": 365,
      " re": 366,
      ".S": 367,
      "gur": 368,
      "id": 369,
      "ot ": 370,
      "hak": 371,
      "exture": 372,
      " infusion": 373,
      "et": 374,
      "pres": 375,
      " tha": 376,
      "atic": 377,
      " flavored with": 378,
      " aromatic": 379,
      " strong": 380,
      "oconut ": 381,
      " us": 382,
      "erm": 383,
      "int": 384,
      " an ": 385,
      "Le": 386,
      "clu": 387,
      "les": 388,
      "led": 389,
      "pple ": 390,
      "oda": 391,
      "Lemon": 392,
      "co": 393,
      "lea": 394,
      "nut": 395,
      "e s": 396,
      "yogur": 397,
      " r": 398,
      "tar": 399,
      " citrus": 400,
      "hol": 401,
      "y t": 402,
      " blend": 403,
      ". It can be ": 404,
      "moothi": 405,
      "lightly ": 406,
      "prepar": 407,
      "ed in": 408,
      "ed tea": 409,
      " and s": 410,
      "ill": 411,
      "illed": 412,
      "istic": 413,
      "presso": 414,
      "eti": 415,
      "iat": 416,
      "one": 417,
      ". It is commonly ": 418,
      "ries": 419,
      " and can": 420,
      " carbonat": 421,
      "erment": 422,
      " ha": 423,
      "soc": 424,
      "illa": 425,
      "generally ": 426,
      "sum": 427,
      "es a": 428,
      "anilla": 429,
      "amel": 430,
      " generally ": 431,
      ", or other": 432,
      "fruity": 433,
      "veg": 434,
      "clude ": 435,
      "cohol": 436,
      "sociat": 437,
      ".B": 438,
      "for": 439,
      "gra": 440,
      "os": 441,
      "sion": 442,
      "espresso": 443,
      "ally": 444,
      " to": 445,
      " or ": 446,
      " warm": 447,
      " combined with": 448,
      "e combines": 449,
      " ingredient": 450,
      "der": 451,
      "ve ": 452,
      "ed s": 453,
      " th": 454,
      ". It has": 455,
      "often": 456,
      "old ": 457,
      " wh": 458,
      " associat": 459,
      "ed beverage ": 460,
      " and a": 461,
      "leaves": 462,
      "yogurt": 463,
      " k": 464,
      "dam": 465,
      "qu": 466,
      "ran": 467,
      "wh": 468,
      " coffee ": 469,
      " black tea": 470,
      " drink": 471,
      " acidit": 472,
      "etal": 473,
      "Milk": 474,
      "green tea": 475,
      "hone": 476,
      "low": 477,
      "s. ": 478,
      "ty": 479,
      "inea": 480,
      "ed or": 481,
      ", b": 482,
      "ese ": 483,
      " and m": 484,
      "lan": 485,
      "ich": 486,
      "ick": 487,
      " fresh": 488,
      " commonly": 489,
      "aff": 490,
      "ood": 491,
      "inn": 492,
      " mango": 493,
      " ginger": 494,
      " include ": 495,
      " produc": 496,
      "produc": 497,
      "freshing": 498,
      " than": 499,
      "y texture": 500,
      ".G": 501,
      "cha": 502,
      "ds": 503,
      "e or": 504,
      "e juic": 505,
      "y flavor": 506,
      " tropical": 507,
      " su": 508,
      " spices": 509,
      " beverag": 510,
      "vegetal": 511,
      "damom": 512,
      "hot ": 513,
      "made from": 514,
      "shak": 515,
      "var": 516,
      "e flavor": 517,
      "int ": 518,
      "ros": 519,
      "using": 520,
      " often": 521,
      "unch": 522,
      " also": 523,
      "herbal infusion": 524,
      "at ": 525,
      "amon": 526,
      "ix": 527,
      "ry": 528,
      "ine": 529,
      "ed milk": 530,
      "each": 531,
      "ometi": 532,
      ". C": 533,
      " and sweet": 534,
      " floral": 535,
      ". It ma": 536,
      ". It generally ": 537,
      " is an ": 538,
      "e con": 539,
      "chilled": 540,
      ", cream": 541,
      "innamon": 542,
      "ometim": 543,
      " P": 544,
      "Water": 545,
      "ai": 546,
      "ap": 547,
      "em": 548,
      "over": 549,
      "tropical": 550,
      " app": 551,
      "inc": 552,
      " coconut ": 553,
      "ommon": 554,
      "rew": 555,
      "ch as": 556,
      " with ": 557,
      "ed as": 558,
      "berries": 559,
      "otes": 560,
      "coholic": 561,
      ".A": 562,
      "gion": 563,
      "ib": 564,
      "ou": 565,
      "vanilla": 566,
      ", m": 567,
      "ana": 568,
      "ild ": 569,
      " cont": 570,
      " characteristic": 571,
      "oolong": 572,
      "honey": 573,
      " such as": 574,
      "ometimes": 575,
      ".R": 576,
      "In": 577,
      "but": 578,
      "ble ": 579,
      "ginger": 580,
      "ss": 581,
      "wood": 582,
      " color": 583,
      "itter": 584,
      " and has a": 585,
      "anana": 586,
      " sweet ": 587,
      "lim": 588,
      " with milk": 589,
      " dist": 590,
      ". It combines": 591,
      "earth": 592,
      "rawberry ": 593,
      ".H": 594,
      "Fruit": 595,
      "cess": 596,
      "fir": 597,
      "im": 598,
      "kl": 599,
      "ually ": 600,
      " ad": 601,
      "e with": 602,
      "is a": 603,
      "atur": 604,
      "eep": 605,
      "old": 606,
      "e cream": 607,
      " consum": 608,
      "sweeten": 609,
      "parkl": 610,
      "ocoa": 611,
      "tart ": 612,
      " acidity": 613,
      " is an herbal infusion": 614,
      "ec": 615,
      "eer": 616,
      "epp": 617,
      "mer": 618,
      "ish": 619,
      "ice cream": 620,
      "haracter": 621,
      " syrup": 622,
      "refreshing": 623,
      "rap": 624,
      ", sugar": 625,
      ". It is generally ": 626,
      ", car": 627,
      "Indi": 628,
      " roast": 629,
      "efir": 630,
      "ed drink": 631,
      ", nut": 632,
      "ican": 633,
      "al ": 634,
      " is tea": 635,
      " made ": 636,
      " mint": 637,
      " prepar": 638,
      " is a ": 639,
      " flavored with ": 640,
      "ed beverag": 641,
      "served chilled": 642,
      " thick": 643,
      " associated with ": 644,
      "-f": 645,
      "beverag": 646,
      "eg": 647,
      "ep": 648,
      "hocolat": 649,
      "op": 650,
      "ub": 651,
      " ar": 652,
      "isk": 653,
      "ent ": 654,
      "att": 655,
      "ock": 656,
      " sty": 657,
      "ffer": 658,
      "y be ": 659,
      "lower": 660,
      "ineapple ": 661,
      ". It generally has a": 662,
      " is an herbal infusion made from": 663,
      " ice": 664,
      "Ic": 665,
      "Latt": 666,
      "avor": 667,
      "beverage ": 668,
      "hin": 669,
      "ron": 670,
      "eel": 671,
      "flavored with": 672,
      "reat": 673,
      "che": 674,
      " green tea": 675,
      "ribut": 676,
      "tail": 677,
      "ucha": 678,
      "ed by ": 679,
      "ing on": 680,
      "sty": 681,
      "ooler": 682,
      " chocolat": 683,
      ".Mango": 684,
      "made with": 685,
      "oda is a": 686,
      "Lemonade ": 687,
      "epend": 688,
      "ocktail": 689,
      ".T": 690,
      "Drink": 691,
      "bucha": 692,
      "mal": 693,
      "ts": 694,
      "e tea": 695,
      "ombucha": 696,
      "har": 697,
      "any ": 698,
      "atcha": 699,
      " mix": 700,
      "version": 701,
      ". It has a cream": 702,
      "offee": 703,
      " sweetness": 704,
      "tive": 705,
      " notes": 706,
      " chill": 707,
      " traditionally ": 708,
      "moothie combines": 709,
      "over ice": 710,
      "epending on": 711,
      " K": 712,
      " h": 713,
      " la": 714,
      " espresso": 715,
      "ad": 716,
      "brew": 717,
      "cent": 718,
      "ferment": 719,
      "iz": 720,
      "nes": 721,
      "pri": 722,
      "ssi": 723,
      "vid": 724,
      "warm": 725,
      ", fruit": 726,
      "ild": 727,
      " spic": 728,
      "ark": 729,
      " ferment": 730,
      " bas": 731,
      " tea is a": 732,
      " juice": 733,
      "lue": 734,
      " Tea is a": 735,
      "vari": 736,
      "sweetened": 737,
      "epper": 738,
      "ness.": 739,
      " A": 740,
      " B": 741,
      " G": 742,
      " it": 743,
      "-flavor": 744,
      ".L": 745,
      "dic": 746,
      "e a": 747,
      "pir": 748,
      "y, and ": 749,
      "ern": 750,
      " cold ": 751,
      ", p": 752,
      "es, ": 753,
      " and ma": 754,
      "hai": 755,
      "ily ": 756,
      " sugar": 757,
      " ma": 758,
      "oft ": 759,
      "liqu": 760,
      " combination": 761,
      "ange ": 762,
      "team": 763,
      "ombines": 764,
      "-like": 765,
      " lemonade ": 766,
      "grain": 767,
      " ingredients": 768,
      "affron": 769,
      " contribut": 770,
      " distinc": 771,
      "Iced ": 772,
      "-er": 773,
      "-tart ": 774,
      ".K": 775,
      "fil": 776,
      "gn": 777,
      "nut ": 778,
      "u-er": 779,
      " a c": 780,
      "on-": 781,
      "ed for": 782,
      ", lemon": 783,
      "region": 784,
      " plan": 785,
      ". It has a sweet": 786,
      " deep": 787,
      " grap": 788,
      "berry": 789,
      " caramel": 790,
      " juice, ": 791,
      " nut": 792,
      ", and slightly ": 793,
      " acidic": 794,
      "-based beverage ": 795,
      "e juice": 796,
      "parkling": 797,
      "hocolate ": 798,
      "oda is a carbonat": 799,
      "versions": 800,
      "u-erh": 801,
      " M": 802,
      " ic": 803,
      ", aromatic": 804,
      "eth": 805,
      "eine": 806,
      "iffer": 807,
      "lo": 808,
      "mar": 809,
      "mel": 810,
      "ox": 811,
      "rat": 812,
      "s and ": 813,
      "tion": 814,
      "tur": 815,
      "trawberry ": 816,
      " cocoa": 817,
      " cocktail": 818,
      "ed water": 819,
      ", floral": 820,
      "isc": 821,
      ". D": 822,
      "lar": 823,
      "lain": 824,
      "lative": 825,
      "anese ": 826,
      "ile ": 827,
      " salt": 828,
      "art": 829,
      " for": 830,
      " mild ": 831,
      "mond ": 832,
      "ras": 833,
      "assion": 834,
      " or other": 835,
      ", citrus": 836,
      "s.C": 837,
      " of ": 838,
      " chai": 839,
      " and cream": 840,
      "offee is": 841,
      "served hot ": 842,
      "owder": 843,
      ", and sometimes": 844,
      "-like flavor": 845,
      "made b": 846,
      " and can be ": 847,
      " have ": 848,
      "Milkshak": 849,
      "affeine": 850,
      ".Ginger": 851,
      ". Common": 852,
      "style ": 853,
      "epending on the ": 854,
      "primar": 855,
      "latively ": 856,
      " ligh": 857,
      "-style ": 858,
      ".D": 859,
      ".O": 860,
      "combines": 861,
      "id ": 862,
      "lus": 863,
      "s. It is": 864,
      "sweet ": 865,
      "tradition": 866,
      "y contain": 867,
      " creat": 868,
      "ed to": 869,
      "ed using": 870,
      ", milk": 871,
      ", fruity": 872,
      ", wh": 873,
      ", ginger": 874,
      "alt ": 875,
      "ens": 876,
      "anth": 877,
      "ilut": 878,
      "arbon": 879,
      "ing a": 880,
      " ber": 881,
      " bro": 882,
      " many ": 883,
      "ed with water": 884,
      " peach": 885,
      "ash": 886,
      ", and c": 887,
      "flavored with ": 888,
      "amp": 889,
      ", or ": 890,
      ". It commonly ": 891,
      "odern": 892,
      "ucum": 893,
      "esser": 894,
      " cardamom": 895,
      "ve a": 896,
      "e combined with": 897,
      "own": 898,
      "ed coffee ": 899,
      " and is commonly ": 900,
      "ulp": 901,
      ".Strawberry ": 902,
      " commonly consum": 903,
      " and sweetener": 904,
      " apple": 905,
      "ibisc": 906,
      "oolong tea": 907,
      "haracteristic": 908,
      "Indian": 909,
      "-fre": 910,
      "ubble ": 911,
      " are ": 912,
      "Lemonade combines": 913,
      "pirit": 914,
      "lush": 915,
      "ucumber": 916,
      "ibiscus": 917,
      ", al": 918,
      ".Lemon": 919,
      "Jap": 920,
      "cold": 921,
      "ger": 922,
      "mango": 923,
      "nown": 924,
      "oo": 925,
      "plain": 926,
      " ag": 927,
      "e of": 928,
      " and b": 929,
      "han": 930,
      "alcoholic": 931,
      " served ": 932,
      " smal": 933,
      " black": 934,
      " meth": 935,
      " is a f": 936,
      " orang": 937,
      ", spices": 938,
      ", salt": 939,
      ". It is sweet": 940,
      "pically ": 941,
      " green": 942,
      "righ": 943,
      "elic": 944,
      " fruit flavor": 945,
      " straw": 946,
      "umin": 947,
      "herbs": 948,
      " alcoholic": 949,
      "served over ice": 950,
      " natur": 951,
      " process": 952,
      " Tea is": 953,
      ".Mint ": 954,
      "e is a milk": 955,
      " Chin": 956,
      " and is often": 957,
      ". The tea": 958,
      " that ": 959,
      " usually ": 960,
      "tart": 961,
      "preparation": 962,
      "rose ": 963,
      "unch combines": 964,
      "e consum": 965,
      "airy ": 966,
      "earthy": 967,
      " styles": 968,
      "file": 969,
      "on-alcoholic": 970,
      "served hot or": 971,
      " small": 972,
      " leaves": 973,
      ", and": 974,
      ".V": 975,
      "green": 976,
      "ian": 977,
      "oam": 978,
      "oun": 979,
      "ua": 980,
      "vel": 981,
      "ins": 982,
      " coffe": 983,
      " caffeine": 984,
      " and often": 985,
      "y with": 986,
      " texture": 987,
      "and": 988,
      " smoothi": 989,
      "ings": 990,
      " from": 991,
      " be consum": 992,
      " is k": 993,
      "rou": 994,
      "rag": 995,
      " tea is": 996,
      "usually ": 997,
      " win": 998,
      "pple": 999
    },
    "merges": [
      [
        " ",
        "a"
      ],
      [
        "d",
        " "
      ],
      [
        "e",
        "r"
      ],
      [
        "e",
        " "
      ],
      [
        "i",
        "n"
      ],
      [
        " ",
        "c"
      ],
      [
        "o",
        "n"
      ],
      [
        "o",
        "r"
      ],
      [
        "i",
        "t"
      ],
      [
        "e",
        "d "
      ],
      [
        ",",
        " "
      ],
      [
        "e",
        "s"
      ],
      [
        "i",
        "s"
      ],
      [
        " a",
        "n"
      ],
      [
        "t",
        " "
      ],
      [
        "e",
        "a"
      ],
      [
        "o",
        "m"
      ],
      [
        ".",
        " "
      ],
      [
        " an",
        "d "
      ],
      [
        "y",
        " "
      ],
      [
        "l",
        "a"
      ],
      [
        "i",
        "c"
      ],
      [
        "h",
        "a"
      ],
      [
        "a",
        "l"
      ],
      [
        "e",
        "n"
      ],
      [
        " ",
        "t"
      ],
      [
        "a",
        "n"
      ],
      [
        ". ",
        "I"
      ],
      [
        "a",
        "t"
      ],
      [
        "i",
        "l"
      ],
      [
        "it",
        "h"
      ],
      [
        "w",
        "ith"
      ],
      [
        " ",
        "s"
      ],
      [
        "a",
        "r"
      ],
      [
        "in",
        "g"
      ],
      [
        " ",
        "f"
      ],
      [
        ". I",
        "t "
      ],
      [
        "r",
        "e"
      ],
      [
        "v",
        "or"
      ],
      [
        " ",
        "b"
      ],
      [
        "la",
        "vor"
      ],
      [
        " ",
        "is"
      ],
      [
        "e",
        "e"
      ],
      [
        "r",
        "o"
      ],
      [
        " ",
        "m"
      ],
      [
        "r",
        "u"
      ],
      [
        "l",
        "y "
      ],
      [
        "m",
        "on"
      ],
      [
        "r",
        "a"
      ],
      [
        "i",
        "on"
      ],
      [
        "w",
        "ee"
      ],
      [
        " c",
        "om"
      ],
      [
        "o",
        "f"
      ],
      [
        "t",
        "h"
      ],
      [
        "ed ",
        "with"
      ],
      [
        "ha",
        "s"
      ],
      [
        "il",
        "k"
      ],
      [
        " ",
        "p"
      ],
      [
        " t",
        "ea"
      ],
      [
        "b",
        "in"
      ],
      [
        "a",
        "s"
      ],
      [
        "r",
        "om"
      ],
      [
        "wee",
        "t"
      ],
      [
        "u",
        "s"
      ],
      [
        "d",
        "e "
      ],
      [
        "v",
        "er"
      ],
      [
        "o",
        "l"
      ],
      [
        "ru",
        "it"
      ],
      [
        "has",
        " a"
      ],
      [
        ",",
        " and "
      ],
      [
        "l",
        "e"
      ],
      [
        " is",
        " a"
      ],
      [
        " ",
        "or"
      ],
      [
        " f",
        "lavor"
      ],
      [
        "o",
        "c"
      ],
      [
        "f",
        "lavor"
      ],
      [
        "at",
        "er"
      ],
      [
        "a",
        "g"
      ],
      [
        "a",
        "de "
      ],
      [
        " ",
        "w"
      ],
      [
        "e",
        "ver"
      ],
      [
        "e ",
        "c"
      ],
      [
        "l",
        "i"
      ],
      [
        "t",
        "er"
      ],
      [
        "ever",
        "ag"
      ],
      [
        ", ",
        "s"
      ],
      [
        "r",
        "ea"
      ],
      [
        " com",
        "bin"
      ],
      [
        ". It ",
        "is"
      ],
      [
        "c",
        "h"
      ],
      [
        "p",
        "ic"
      ],
      [
        ". It ",
        "has a"
      ],
      [
        "o",
        "th"
      ],
      [
        " ",
        "with"
      ],
      [
        "r",
        "es"
      ],
      [
        "al",
        "ly "
      ],
      [
        " ",
        "d"
      ],
      [
        "a",
        "m"
      ],
      [
        " ",
        "g"
      ],
      [
        "e",
        "d"
      ],
      [
        ", ",
        "or"
      ],
      [
        "rea",
        "m"
      ],
      [
        "h",
        "e "
      ],
      [
        "u",
        "r"
      ],
      [
        "p",
        "p"
      ],
      [
        "an",
        "g"
      ],
      [
        " ",
        "in"
      ],
      [
        "en",
        "t"
      ],
      [
        "j",
        "u"
      ],
      [
        "t",
        "ea"
      ],
      [
        "r",
        "i"
      ],
      [
        "ju",
        "ic"
      ],
      [
        " a",
        "rom"
      ],
      [
        ". I",
        "t"
      ],
      [
        ",",
        " c"
      ],
      [
        "u",
        "t"
      ],
      [
        " c",
        "an"
      ],
      [
        "e",
        "l"
      ],
      [
        "t",
        "a"
      ],
      [
        "o",
        "d"
      ],
      [
        "b",
        "er"
      ],
      [
        "m",
        "ilk"
      ],
      [
        " com",
        "mon"
      ],
      [
        "in",
        "k"
      ],
      [
        "on",
        "g"
      ],
      [
        " m",
        "ilk"
      ],
      [
        "s",
        "."
      ],
      [
        "er",
        "v"
      ],
      [
        " c",
        "on"
      ],
      [
        "en",
        "er"
      ],
      [
        "g",
        "h"
      ],
      [
        "f",
        "rom"
      ],
      [
        "d",
        "it"
      ],
      [
        "of",
        "f"
      ],
      [
        " f",
        "ruit"
      ],
      [
        "e ",
        "is"
      ],
      [
        "h",
        "er"
      ],
      [
        "r",
        "ink"
      ],
      [
        "s",
        "weet"
      ],
      [
        "u",
        "c"
      ],
      [
        " combin",
        "es"
      ],
      [
        " a",
        "s"
      ],
      [
        " s",
        "t"
      ],
      [
        "everag",
        "e "
      ],
      [
        "ed ",
        "b"
      ],
      [
        "ra",
        "c"
      ],
      [
        "f",
        "ruit"
      ],
      [
        "at",
        "ion"
      ],
      [
        " s",
        "weet"
      ],
      [
        "l",
        "e "
      ],
      [
        "le",
        "mon"
      ],
      [
        "l",
        "y"
      ],
      [
        "oth",
        "er"
      ],
      [
        " ",
        "of"
      ],
      [
        "T",
        "ea"
      ],
      [
        "p",
        "ar"
      ],
      [
        "u",
        "m"
      ],
      [
        " c",
        "ha"
      ],
      [
        "erv",
        "ed "
      ],
      [
        "es",
        "s"
      ],
      [
        " and ",
        "c"
      ],
      [
        "rac",
        "ter"
      ],
      [
        "re",
        "en"
      ],
      [
        "d",
        "i"
      ],
      [
        " t",
        "he "
      ],
      [
        "off",
        "e"
      ],
      [
        "t",
        "i"
      ],
      [
        "y",
        ", "
      ],
      [
        "her",
        "b"
      ],
      [
        "om",
        "bin"
      ],
      [
        "en",
        "d"
      ],
      [
        "ing",
        " "
      ],
      [
        "u",
        "n"
      ],
      [
        "res",
        "h"
      ],
      [
        "as",
        "t"
      ],
      [
        " a",
        "l"
      ],
      [
        "ed with",
        " "
      ],
      [
        " common",
        "ly "
      ],
      [
        "m",
        "o"
      ],
      [
        "s",
        "erved "
      ],
      [
        "ade ",
        "from"
      ],
      [
        " w",
        "ater"
      ],
      [
        "e",
        "x"
      ],
      [
        "r",
        "y "
      ],
      [
        "w",
        "ater"
      ],
      [
        "c",
        "k"
      ],
      [
        "s",
        "o"
      ],
      [
        "u",
        "t "
      ],
      [
        " c",
        "ar"
      ],
      [
        " arom",
        "a"
      ],
      [
        "ta",
        "in"
      ],
      [
        "l",
        "or"
      ],
      [
        "la",
        "ck"
      ],
      [
        "dit",
        "ion"
      ],
      [
        "lor",
        "al"
      ],
      [
        "is",
        "t"
      ],
      [
        "ing",
        "er"
      ],
      [
        ". It",
        " can"
      ],
      [
        "li",
        "gh"
      ],
      [
        " ",
        "juic"
      ],
      [
        "v",
        "e"
      ],
      [
        "ang",
        "o"
      ],
      [
        " ",
        "n"
      ],
      [
        " b",
        "e "
      ],
      [
        "oc",
        "o"
      ],
      [
        "ener",
        "ally "
      ],
      [
        "it",
        "ru"
      ],
      [
        "e c",
        "ombin"
      ],
      [
        " cha",
        "racter"
      ],
      [
        "itru",
        "s"
      ],
      [
        ".",
        "C"
      ],
      [
        "o",
        "w"
      ],
      [
        "ed ",
        "c"
      ],
      [
        " p",
        "ro"
      ],
      [
        "c",
        "i"
      ],
      [
        "b",
        "on"
      ],
      [
        "b",
        "as"
      ],
      [
        "o",
        "t"
      ],
      [
        "t",
        "en"
      ],
      [
        "ra",
        "dition"
      ],
      [
        "s",
        "t"
      ],
      [
        "ex",
        "t"
      ],
      [
        "d",
        "uc"
      ],
      [
        "o",
        "ol"
      ],
      [
        "u",
        "re"
      ],
      [
        "pic",
        "al"
      ],
      [
        "l",
        "u"
      ],
      [
        "t",
        "o"
      ],
      [
        "g",
        "ar"
      ],
      [
        "f",
        "us"
      ],
      [
        " c",
        "ream"
      ],
      [
        "la",
        "t"
      ],
      [
        "ro",
        "pical"
      ],
      [
        "herb",
        "al"
      ],
      [
        " ",
        "other"
      ],
      [
        "e",
        ", "
      ],
      [
        " an",
        "d"
      ],
      [
        "re",
        "par"
      ],
      [
        ", and ",
        "s"
      ],
      [
        ". ",
        "T"
      ],
      [
        "l",
        "end"
      ],
      [
        "p",
        "ro"
      ],
      [
        "u",
        "gar"
      ],
      [
        "ro",
        "ast"
      ],
      [
        " ",
        "Tea"
      ],
      [
        "d",
        "rink"
      ],
      [
        "f",
        "f"
      ],
      [
        "m",
        "a"
      ],
      [
        "s",
        "i"
      ],
      [
        "ic",
        "e"
      ],
      [
        "wee",
        "t "
      ],
      [
        "offe",
        "e "
      ],
      [
        "mo",
        "oth"
      ],
      [
        "r",
        "ong"
      ],
      [
        "-",
        "li"
      ],
      [
        "y",
        "ru"
      ],
      [
        " c",
        "h"
      ],
      [
        "pic",
        "es"
      ],
      [
        "ber",
        "ry "
      ],
      [
        "ligh",
        "t"
      ],
      [
        "yru",
        "p"
      ],
      [
        " ",
        "S"
      ],
      [
        ".",
        "M"
      ],
      [
        "f",
        "resh"
      ],
      [
        " m",
        "ade from"
      ],
      [
        "oc",
        "on"
      ],
      [
        "reen",
        " tea"
      ],
      [
        "-li",
        "k"
      ],
      [
        " ",
        "lemon"
      ],
      [
        "i",
        "r"
      ],
      [
        "y",
        "o"
      ],
      [
        "ar",
        "m"
      ],
      [
        "ing",
        "re"
      ],
      [
        " in",
        "fus"
      ],
      [
        " con",
        "tain"
      ],
      [
        "e is",
        " a"
      ],
      [
        "ingre",
        "di"
      ],
      [
        " ",
        "C"
      ],
      [
        "m",
        "ade "
      ],
      [
        "v",
        "es"
      ],
      [
        " and ",
        "is"
      ],
      [
        "al",
        "t"
      ],
      [
        " t",
        "radition"
      ],
      [
        ".",
        "P"
      ],
      [
        "f",
        "loral"
      ],
      [
        "n",
        "ess"
      ],
      [
        "u",
        "l"
      ],
      [
        " a",
        "ci"
      ],
      [
        "ol",
        "or"
      ],
      [
        "ingredi",
        "ent"
      ],
      [
        " b",
        "everage "
      ],
      [
        "lack",
        " tea"
      ],
      [
        "-",
        "bas"
      ],
      [
        "s",
        ", "
      ],
      [
        "ea",
        "r"
      ],
      [
        "y ",
        "b"
      ],
      [
        "oco",
        "lat"
      ],
      [
        "ra",
        "w"
      ],
      [
        ", s",
        "weet"
      ],
      [
        " car",
        "bon"
      ],
      [
        ". T",
        "he "
      ],
      [
        " ",
        "re"
      ],
      [
        ".",
        "S"
      ],
      [
        "g",
        "ur"
      ],
      [
        "i",
        "d"
      ],
      [
        "o",
        "t "
      ],
      [
        "ha",
        "k"
      ],
      [
        "ext",
        "ure"
      ],
      [
        " infus",
        "ion"
      ],
      [
        "e",
        "t"
      ],
      [
        "p",
        "res"
      ],
      [
        " t",
        "ha"
      ],
      [
        "at",
        "ic"
      ],
      [
        " flavor",
        "ed with"
      ],
      [
        " arom",
        "atic"
      ],
      [
        " st",
        "rong"
      ],
      [
        "ocon",
        "ut "
      ],
      [
        " ",
        "us"
      ],
      [
        "er",
        "m"
      ],
      [
        "in",
        "t"
      ],
      [
        " an",
        " "
      ],
      [
        "L",
        "e"
      ],
      [
        "c",
        "lu"
      ],
      [
        "l",
        "es"
      ],
      [
        "le",
        "d"
      ],
      [
        "pp",
        "le "
      ],
      [
        "od",
        "a"
      ],
      [
        "Le",
        "mon"
      ],
      [
        "c",
        "o"
      ],
      [
        "l",
        "ea"
      ],
      [
        "n",
        "ut"
      ],
      [
        "e ",
        "s"
      ],
      [
        "yo",
        "gur"
      ],
      [
        " ",
        "r"
      ],
      [
        "t",
        "ar"
      ],
      [
        " c",
        "itrus"
      ],
      [
        "h",
        "ol"
      ],
      [
        "y ",
        "t"
      ],
      [
        " b",
        "lend"
      ],
      [
        ". It can",
        " be "
      ],
      [
        "mooth",
        "i"
      ],
      [
        "light",
        "ly "
      ],
      [
        "p",
        "repar"
      ],
      [
        "ed ",
        "in"
      ],
      [
        "ed ",
        "tea"
      ],
      [
        " and ",
        "s"
      ],
      [
        "il",
        "l"
      ],
      [
        "il",
        "led"
      ],
      [
        "ist",
        "ic"
      ],
      [
        "pres",
        "so"
      ],
      [
        "e",
        "ti"
      ],
      [
        "i",
        "at"
      ],
      [
        "on",
        "e"
      ],
      [
        ". It is",
        " commonly "
      ],
      [
        "ri",
        "es"
      ],
      [
        " and c",
        "an"
      ],
      [
        " carbon",
        "at"
      ],
      [
        "erm",
        "ent"
      ],
      [
        " ",
        "ha"
      ],
      [
        "s",
        "oc"
      ],
      [
        "il",
        "la"
      ],
      [
        "g",
        "enerally "
      ],
      [
        "s",
        "um"
      ],
      [
        "es",
        " a"
      ],
      [
        "an",
        "illa"
      ],
      [
        "am",
        "el"
      ],
      [
        " g",
        "enerally "
      ],
      [
        ", or",
        " other"
      ],
      [
        "fruit",
        "y"
      ],
      [
        "ve",
        "g"
      ],
      [
        "clu",
        "de "
      ],
      [
        "co",
        "hol"
      ],
      [
        "soc",
        "iat"
      ],
      [
        ".",
        "B"
      ],
      [
        "f",
        "or"
      ],
      [
        "g",
        "ra"
      ],
      [
        "o",
        "s"
      ],
      [
        "s",
        "ion"
      ],
      [
        "es",
        "presso"
      ],
      [
        "al",
        "ly"
      ],
      [
        " t",
        "o"
      ],
      [
        " or",
        " "
      ],
      [
        " w",
        "arm"
      ],
      [
        " combin",
        "ed with"
      ],
      [
        "e combin",
        "es"
      ],
      [
        " ",
        "ingredient"
      ],
      [
        "d",
        "er"
      ],
      [
        "v",
        "e "
      ],
      [
        "ed ",
        "s"
      ],
      [
        " t",
        "h"
      ],
      [
        ". It ",
        "has"
      ],
      [
        "of",
        "ten"
      ],
      [
        "ol",
        "d "
      ],
      [
        " w",
        "h"
      ],
      [
        " as",
        "sociat"
      ],
      [
        "ed b",
        "everage "
      ],
      [
        " and",
        " a"
      ],
      [
        "lea",
        "ves"
      ],
      [
        "yogur",
        "t"
      ],
      [
        " ",
        "k"
      ],
      [
        "d",
        "am"
      ],
      [
        "q",
        "u"
      ],
      [
        "r",
        "an"
      ],
      [
        "w",
        "h"
      ],
      [
        " c",
        "offee "
      ],
      [
        " b",
        "lack tea"
      ],
      [
        " d",
        "rink"
      ],
      [
        " aci",
        "dit"
      ],
      [
        "et",
        "al"
      ],
      [
        "M",
        "ilk"
      ],
      [
        "g",
        "reen tea"
      ],
      [
        "h",
        "one"
      ],
      [
        "l",
        "ow"
      ],
      [
        "s",
        ". "
      ],
      [
        "t",
        "y"
      ],
      [
        "in",
        "ea"
      ],
      [
        "ed ",
        "or"
      ],
      [
        ", ",
        "b"
      ],
      [
        "es",
        "e "
      ],
      [
        " and ",
        "m"
      ],
      [
        "la",
        "n"
      ],
      [
        "ic",
        "h"
      ],
      [
        "ic",
        "k"
      ],
      [
        " f",
        "resh"
      ],
      [
        " common",
        "ly"
      ],
      [
        "a",
        "ff"
      ],
      [
        "o",
        "od"
      ],
      [
        "in",
        "n"
      ],
      [
        " m",
        "ango"
      ],
      [
        " g",
        "inger"
      ],
      [
        " in",
        "clude "
      ],
      [
        " pro",
        "duc"
      ],
      [
        "pro",
        "duc"
      ],
      [
        "fresh",
        "ing"
      ],
      [
        " tha",
        "n"
      ],
      [
        "y t",
        "exture"
      ],
      [
        ".",
        "G"
      ],
      [
        "c",
        "ha"
      ],
      [
        "d",
        "s"
      ],
      [
        "e ",
        "or"
      ],
      [
        "e ",
        "juic"
      ],
      [
        "y ",
        "flavor"
      ],
      [
        " t",
        "ropical"
      ],
      [
        " s",
        "u"
      ],
      [
        " s",
        "pices"
      ],
      [
        " b",
        "everag"
      ],
      [
        "veg",
        "etal"
      ],
      [
        "dam",
        "om"
      ],
      [
        "h",
        "ot "
      ],
      [
        "m",
        "ade from"
      ],
      [
        "s",
        "hak"
      ],
      [
        "v",
        "ar"
      ],
      [
        "e ",
        "flavor"
      ],
      [
        "in",
        "t "
      ],
      [
        "ro",
        "s"
      ],
      [
        "us",
        "ing"
      ],
      [
        " of",
        "ten"
      ],
      [
        "un",
        "ch"
      ],
      [
        " al",
        "so"
      ],
      [
        "herbal",
        " infusion"
      ],
      [
        "a",
        "t "
      ],
      [
        "a",
        "mon"
      ],
      [
        "i",
        "x"
      ],
      [
        "r",
        "y"
      ],
      [
        "in",
        "e"
      ],
      [
        "ed ",
        "milk"
      ],
      [
        "ea",
        "ch"
      ],
      [
        "om",
        "eti"
      ],
      [
        ". ",
        "C"
      ],
      [
        " and ",
        "sweet"
      ],
      [
        " f",
        "loral"
      ],
      [
        ". It ",
        "ma"
      ],
      [
        ". It ",
        "generally "
      ],
      [
        " is",
        " an "
      ],
      [
        "e c",
        "on"
      ],
      [
        "ch",
        "illed"
      ],
      [
        ", c",
        "ream"
      ],
      [
        "inn",
        "amon"
      ],
      [
        "ometi",
        "m"
      ],
      [
        " ",
        "P"
      ],
      [
        "W",
        "ater"
      ],
      [
        "a",
        "i"
      ],
      [
        "a",
        "p"
      ],
      [
        "e",
        "m"
      ],
      [
        "o",
        "ver"
      ],
      [
        "t",
        "ropical"
      ],
      [
        " a",
        "pp"
      ],
      [
        "in",
        "c"
      ],
      [
        " c",
        "oconut "
      ],
      [
        "om",
        "mon"
      ],
      [
        "re",
        "w"
      ],
      [
        "ch",
        " as"
      ],
      [
        " with",
        " "
      ],
      [
        "ed",
        " as"
      ],
      [
        "ber",
        "ries"
      ],
      [
        "ot",
        "es"
      ],
      [
        "cohol",
        "ic"
      ],
      [
        ".",
        "A"
      ],
      [
        "g",
        "ion"
      ],
      [
        "i",
        "b"
      ],
      [
        "o",
        "u"
      ],
      [
        "v",
        "anilla"
      ],
      [
        ", ",
        "m"
      ],
      [
        "an",
        "a"
      ],
      [
        "il",
        "d "
      ],
      [
        " con",
        "t"
      ],
      [
        " character",
        "istic"
      ],
      [
        "ool",
        "ong"
      ],
      [
        "hone",
        "y"
      ],
      [
        " su",
        "ch as"
      ],
      [
        "ometim",
        "es"
      ],
      [
        ".",
        "R"
      ],
      [
        "I",
        "n"
      ],
      [
        "b",
        "ut"
      ],
      [
        "b",
        "le "
      ],
      [
        "g",
        "inger"
      ],
      [
        "s",
        "s"
      ],
      [
        "w",
        "ood"
      ],
      [
        " c",
        "olor"
      ],
      [
        "it",
        "ter"
      ],
      [
        " and ",
        "has a"
      ],
      [
        "an",
        "ana"
      ],
      [
        " s",
        "weet "
      ],
      [
        "li",
        "m"
      ],
      [
        " with",
        " milk"
      ],
      [
        " d",
        "ist"
      ],
      [
        ". It",
        " combines"
      ],
      [
        "ear",
        "th"
      ],
      [
        "raw",
        "berry "
      ],
      [
        ".",
        "H"
      ],
      [
        "F",
        "ruit"
      ],
      [
        "c",
        "ess"
      ],
      [
        "f",
        "ir"
      ],
      [
        "i",
        "m"
      ],
      [
        "k",
        "l"
      ],
      [
        "u",
        "ally "
      ],
      [
        " a",
        "d"
      ],
      [
        "e ",
        "with"
      ],
      [
        "is",
        " a"
      ],
      [
        "at",
        "ur"
      ],
      [
        "ee",
        "p"
      ],
      [
        "ol",
        "d"
      ],
      [
        "e c",
        "ream"
      ],
      [
        " con",
        "sum"
      ],
      [
        "sweet",
        "en"
      ],
      [
        "par",
        "kl"
      ],
      [
        "oco",
        "a"
      ],
      [
        "tar",
        "t "
      ],
      [
        " acidit",
        "y"
      ],
      [
        " is an ",
        "herbal infusion"
      ],
      [
        "e",
        "c"
      ],
      [
        "e",
        "er"
      ],
      [
        "e",
        "pp"
      ],
      [
        "m",
        "er"
      ],
      [
        "is",
        "h"
      ],
      [
        "ic",
        "e cream"
      ],
      [
        "ha",
        "racter"
      ],
      [
        " s",
        "yrup"
      ],
      [
        "re",
        "freshing"
      ],
      [
        "ra",
        "p"
      ],
      [
        ", s",
        "ugar"
      ],
      [
        ". It is",
        " generally "
      ],
      [
        ", c",
        "ar"
      ],
      [
        "In",
        "di"
      ],
      [
        " ",
        "roast"
      ],
      [
        "e",
        "fir"
      ],
      [
        "ed ",
        "drink"
      ],
      [
        ", ",
        "nut"
      ],
      [
        "ic",
        "an"
      ],
      [
        "al",
        " "
      ],
      [
        " is",
        " tea"
      ],
      [
        " m",
        "ade "
      ],
      [
        " m",
        "int"
      ],
      [
        " p",
        "repar"
      ],
      [
        " is a",
        " "
      ],
      [
        " flavor",
        "ed with "
      ],
      [
        "ed b",
        "everag"
      ],
      [
        "served ",
        "chilled"
      ],
      [
        " th",
        "ick"
      ],
      [
        " associat",
        "ed with "
      ],
      [
        "-",
        "f"
      ],
      [
        "b",
        "everag"
      ],
      [
        "e",
        "g"
      ],
      [
        "e",
        "p"
      ],
      [
        "h",
        "ocolat"
      ],
      [
        "o",
        "p"
      ],
      [
        "u",
        "b"
      ],
      [
        " a",
        "r"
      ],
      [
        "is",
        "k"
      ],
      [
        "en",
        "t "
      ],
      [
        "at",
        "t"
      ],
      [
        "oc",
        "k"
      ],
      [
        " st",
        "y"
      ],
      [
        "ff",
        "er"
      ],
      [
        "y b",
        "e "
      ],
      [
        "low",
        "er"
      ],
      [
        "inea",
        "pple "
      ],
      [
        ". It generally ",
        "has a"
      ],
      [
        " is an herbal infusion",
        " made from"
      ],
      [
        " ",
        "ice"
      ],
      [
        "I",
        "c"
      ],
      [
        "L",
        "att"
      ],
      [
        "a",
        "vor"
      ],
      [
        "b",
        "everage "
      ],
      [
        "h",
        "in"
      ],
      [
        "r",
        "on"
      ],
      [
        "ee",
        "l"
      ],
      [
        "flavor",
        "ed with"
      ],
      [
        "rea",
        "t"
      ],
      [
        "ch",
        "e"
      ],
      [
        " g",
        "reen tea"
      ],
      [
        "ri",
        "but"
      ],
      [
        "ta",
        "il"
      ],
      [
        "uc",
        "ha"
      ],
      [
        "ed b",
        "y "
      ],
      [
        "ing ",
        "on"
      ],
      [
        "st",
        "y"
      ],
      [
        "ool",
        "er"
      ],
      [
        " ch",
        "ocolat"
      ],
      [
        ".M",
        "ango"
      ],
      [
        "made ",
        "with"
      ],
      [
        "oda",
        " is a"
      ],
      [
        "Lemon",
        "ade "
      ],
      [
        "ep",
        "end"
      ],
      [
        "ock",
        "tail"
      ],
      [
        ".",
        "T"
      ],
      [
        "D",
        "rink"
      ],
      [
        "b",
        "ucha"
      ],
      [
        "m",
        "al"
      ],
      [
        "t",
        "s"
      ],
      [
        "e ",
        "tea"
      ],
      [
        "om",
        "bucha"
      ],
      [
        "ha",
        "r"
      ],
      [
        "an",
        "y "
      ],
      [
        "at",
        "cha"
      ],
      [
        " m",
        "ix"
      ],
      [
        "ver",
        "sion"
      ],
      [
        ". It has a",
        " cream"
      ],
      [
        "off",
        "ee"
      ],
      [
        " sweet",
        "ness"
      ],
      [
        "ti",
        "ve"
      ],
      [
        " n",
        "otes"
      ],
      [
        " ch",
        "ill"
      ],
      [
        " tradition",
        "ally "
      ],
      [
        "moothi",
        "e combines"
      ],
      [
        "over",
        " ice"
      ],
      [
        "epend",
        "ing on"
      ],
      [
        " ",
        "K"
      ],
      [
        " ",
        "h"
      ],
      [
        " ",
        "la"
      ],
      [
        " ",
        "espresso"
      ],
      [
        "a",
        "d"
      ],
      [
        "b",
        "rew"
      ],
      [
        "c",
        "ent"
      ],
      [
        "f",
        "erment"
      ],
      [
        "i",
        "z"
      ],
      [
        "n",
        "es"
      ],
      [
        "p",
        "ri"
      ],
      [
        "s",
        "si"
      ],
      [
        "v",
        "id"
      ],
      [
        "w",
        "arm"
      ],
      [
        ", ",
        "fruit"
      ],
      [
        "il",
        "d"
      ],
      [
        " s",
        "pic"
      ],
      [
        "ar",
        "k"
      ],
      [
        " f",
        "erment"
      ],
      [
        " b",
        "as"
      ],
      [
        " tea",
        " is a"
      ],
      [
        " juic",
        "e"
      ],
      [
        "lu",
        "e"
      ],
      [
        " Tea",
        " is a"
      ],
      [
        "var",
        "i"
      ],
      [
        "sweeten",
        "ed"
      ],
      [
        "epp",
        "er"
      ],
      [
        "nes",
        "s."
      ],
      [
        " ",
        "A"
      ],
      [
        " ",
        "B"
      ],
      [
        " ",
        "G"
      ],
      [
        " ",
        "it"
      ],
      [
        "-",
        "flavor"
      ],
      [
        ".",
        "L"
      ],
      [
        "d",
        "ic"
      ],
      [
        "e",
        " a"
      ],
      [
        "p",
        "ir"
      ],
      [
        "y",
        ", and "
      ],
      [
        "er",
        "n"
      ],
      [
        " c",
        "old "
      ],
      [
        ", ",
        "p"
      ],
      [
        "es",
        ", "
      ],
      [
        " and ",
        "ma"
      ],
      [
        "ha",
        "i"
      ],
      [
        "il",
        "y "
      ],
      [
        " s",
        "ugar"
      ],
      [
        " m",
        "a"
      ],
      [
        "of",
        "t "
      ],
      [
        "li",
        "qu"
      ],
      [
        " combin",
        "ation"
      ],
      [
        "ang",
        "e "
      ],
      [
        "tea",
        "m"
      ],
      [
        "ombin",
        "es"
      ],
      [
        "-lik",
        "e"
      ],
      [
        " lemon",
        "ade "
      ],
      [
        "gra",
        "in"
      ],
      [
        " ingredient",
        "s"
      ],
      [
        "aff",
        "ron"
      ],
      [
        " cont",
        "ribut"
      ],
      [
        " dist",
        "inc"
      ],
      [
        "Ic",
        "ed "
      ],
      [
        "-",
        "er"
      ],
      [
        "-",
        "tart "
      ],
      [
        ".",
        "K"
      ],
      [
        "f",
        "il"
      ],
      [
        "g",
        "n"
      ],
      [
        "n",
        "ut "
      ],
      [
        "u",
        "-er"
      ],
      [
        " a",
        " c"
      ],
      [
        "on",
        "-"
      ],
      [
        "ed ",
        "for"
      ],
      [
        ", ",
        "lemon"
      ],
      [
        "re",
        "gion"
      ],
      [
        " p",
        "lan"
      ],
      [
        ". It has a",
        " sweet"
      ],
      [
        " d",
        "eep"
      ],
      [
        " g",
        "rap"
      ],
      [
        "ber",
        "ry"
      ],
      [
        " car",
        "amel"
      ],
      [
        " juic",
        "e, "
      ],
      [
        " n",
        "ut"
      ],
      [
        ", and s",
        "lightly "
      ],
      [
        " aci",
        "dic"
      ],
      [
        "-bas",
        "ed beverage "
      ],
      [
        "e juic",
        "e"
      ],
      [
        "parkl",
        "ing"
      ],
      [
        "hocolat",
        "e "
      ],
      [
        "oda is a",
        " carbonat"
      ],
      [
        "version",
        "s"
      ],
      [
        "u-er",
        "h"
      ],
      [
        " ",
        "M"
      ],
      [
        " ",
        "ic"
      ],
      [
        ",",
        " aromatic"
      ],
      [
        "e",
        "th"
      ],
      [
        "e",
        "ine"
      ],
      [
        "i",
        "ffer"
      ],
      [
        "l",
        "o"
      ],
      [
        "m",
        "ar"
      ],
      [
        "m",
        "el"
      ],
      [
        "o",
        "x"
      ],
      [
        "r",
        "at"
      ],
      [
        "s",
        " and "
      ],
      [
        "t",
        "ion"
      ],
      [
        "t",
        "ur"
      ],
      [
        "t",
        "rawberry "
      ],
      [
        " c",
        "ocoa"
      ],
      [
        " c",
        "ocktail"
      ],
      [
        "ed ",
        "water"
      ],
      [
        ", ",
        "floral"
      ],
      [
        "is",
        "c"
      ],
      [
        ". ",
        "D"
      ],
      [
        "la",
        "r"
      ],
      [
        "la",
        "in"
      ],
      [
        "la",
        "tive"
      ],
      [
        "an",
        "ese "
      ],
      [
        "il",
        "e "
      ],
      [
        " s",
        "alt"
      ],
      [
        "ar",
        "t"
      ],
      [
        " f",
        "or"
      ],
      [
        " m",
        "ild "
      ],
      [
        "mon",
        "d "
      ],
      [
        "ra",
        "s"
      ],
      [
        "as",
        "sion"
      ],
      [
        " or",
        " other"
      ],
      [
        ", c",
        "itrus"
      ],
      [
        "s.",
        "C"
      ],
      [
        " of",
        " "
      ],
      [
        " cha",
        "i"
      ],
      [
        " and c",
        "ream"
      ],
      [
        "offe",
        "e is"
      ],
      [
        "served ",
        "hot "
      ],
      [
        "ow",
        "der"
      ],
      [
        ", and s",
        "ometimes"
      ],
      [
        "-lik",
        "e flavor"
      ],
      [
        "made ",
        "b"
      ],
      [
        " and can",
        " be "
      ],
      [
        " ha",
        "ve "
      ],
      [
        "Milk",
        "shak"
      ],
      [
        "aff",
        "eine"
      ],
      [
        ".G",
        "inger"
      ],
      [
        ". C",
        "ommon"
      ],
      [
        "sty",
        "le "
      ],
      [
        "epending on",
        " the "
      ],
      [
        "pri",
        "mar"
      ],
      [
        "lative",
        "ly "
      ],
      [
        " ",
        "ligh"
      ],
      [
        "-",
        "style "
      ],
      [
        ".",
        "D"
      ],
      [
        ".",
        "O"
      ],
      [
        "c",
        "ombines"
      ],
      [
        "i",
        "d "
      ],
      [
        "l",
        "us"
      ],
      [
        "s",
        ". It is"
      ],
      [
        "s",
        "weet "
      ],
      [
        "t",
        "radition"
      ],
      [
        "y",
        " contain"
      ],
      [
        " c",
        "reat"
      ],
      [
        "ed ",
        "to"
      ],
      [
        "ed ",
        "using"
      ],
      [
        ", ",
        "milk"
      ],
      [
        ", ",
        "fruity"
      ],
      [
        ", ",
        "wh"
      ],
      [
        ", ",
        "ginger"
      ],
      [
        "al",
        "t "
      ],
      [
        "en",
        "s"
      ],
      [
        "an",
        "th"
      ],
      [
        "il",
        "ut"
      ],
      [
        "ar",
        "bon"
      ],
      [
        "ing",
        " a"
      ],
      [
        " b",
        "er"
      ],
      [
        " b",
        "ro"
      ],
      [
        " m",
        "any "
      ],
      [
        "ed with",
        " water"
      ],
      [
        " p",
        "each"
      ],
      [
        "as",
        "h"
      ],
      [
        ", and ",
        "c"
      ],
      [
        "flavor",
        "ed with "
      ],
      [
        "am",
        "p"
      ],
      [
        ", or",
        " "
      ],
      [
        ". It",
        " commonly "
      ],
      [
        "od",
        "ern"
      ],
      [
        "uc",
        "um"
      ],
      [
        "ess",
        "er"
      ],
      [
        " car",
        "damom"
      ],
      [
        "ve",
        " a"
      ],
      [
        "e combin",
        "ed with"
      ],
      [
        "ow",
        "n"
      ],
      [
        "ed c",
        "offee "
      ],
      [
        " and is",
        " commonly "
      ],
      [
        "ul",
        "p"
      ],
      [
        ".S",
        "trawberry "
      ],
      [
        " commonly",
        " consum"
      ],
      [
        " and sweet",
        "ener"
      ],
      [
        " app",
        "le"
      ],
      [
        "ib",
        "isc"
      ],
      [
        "oolong",
        " tea"
      ],
      [
        "haracter",
        "istic"
      ],
      [
        "Indi",
        "an"
      ],
      [
        "-f",
        "re"
      ],
      [
        "ub",
        "ble "
      ],
      [
        " ar",
        "e "
      ],
      [
        "Lemonade ",
        "combines"
      ],
      [
        "pir",
        "it"
      ],
      [
        "lus",
        "h"
      ],
      [
        "ucum",
        "ber"
      ],
      [
        "ibisc",
        "us"
      ],
      [
        ",",
        " al"
      ],
      [
        ".",
        "Lemon"
      ],
      [
        "J",
        "ap"
      ],
      [
        "c",
        "old"
      ],
      [
        "g",
        "er"
      ],
      [
        "m",
        "ango"
      ],
      [
        "n",
        "own"
      ],
      [
        "o",
        "o"
      ],
      [
        "p",
        "lain"
      ],
      [
        " a",
        "g"
      ],
      [
        "e ",
        "of"
      ],
      [
        " and ",
        "b"
      ],
      [
        "ha",
        "n"
      ],
      [
        "al",
        "coholic"
      ],
      [
        " s",
        "erved "
      ],
      [
        " s",
        "mal"
      ],
      [
        " b",
        "lack"
      ],
      [
        " m",
        "eth"
      ],
      [
        " is a",
        " f"
      ],
      [
        " or",
        "ang"
      ],
      [
        ", s",
        "pices"
      ],
      [
        ", s",
        "alt"
      ],
      [
        ". It is",
        " sweet"
      ],
      [
        "pic",
        "ally "
      ],
      [
        " g",
        "reen"
      ],
      [
        "ri",
        "gh"
      ],
      [
        "el",
        "ic"
      ],
      [
        " fruit",
        " flavor"
      ],
      [
        " st",
        "raw"
      ],
      [
        "um",
        "in"
      ],
      [
        "herb",
        "s"
      ],
      [
        " al",
        "coholic"
      ],
      [
        "served ",
        "over ice"
      ],
      [
        " n",
        "atur"
      ],
      [
        " pro",
        "cess"
      ],
      [
        " Tea",
        " is"
      ],
      [
        ".M",
        "int "
      ],
      [
        "e is a",
        " milk"
      ],
      [
        " C",
        "hin"
      ],
      [
        " and is",
        " often"
      ],
      [
        ". The ",
        "tea"
      ],
      [
        " tha",
        "t "
      ],
      [
        " us",
        "ually "
      ],
      [
        "tar",
        "t"
      ],
      [
        "prepar",
        "ation"
      ],
      [
        "ros",
        "e "
      ],
      [
        "unch",
        " combines"
      ],
      [
        "e con",
        "sum"
      ],
      [
        "ai",
        "ry "
      ],
      [
        "earth",
        "y"
      ],
      [
        " sty",
        "les"
      ],
      [
        "fil",
        "e"
      ],
      [
        "on-",
        "alcoholic"
      ],
      [
        "served hot ",
        "or"
      ],
      [
        " smal",
        "l"
      ],
      [
        " ",
        "leaves"
      ],
      [
        ",",
        " and"
      ],
      [
        ".",
        "V"
      ],
      [
        "g",
        "reen"
      ],
      [
        "i",
        "an"
      ],
      [
        "o",
        "am"
      ],
      [
        "o",
        "un"
      ],
      [
        "u",
        "a"
      ],
      [
        "v",
        "el"
      ],
      [
        "in",
        "s"
      ],
      [
        " c",
        "offe"
      ],
      [
        " c",
        "affeine"
      ],
      [
        " and ",
        "often"
      ],
      [
        "y ",
        "with"
      ],
      [
        " t",
        "exture"
      ],
      [
        "an",
        "d"
      ],
      [
        " s",
        "moothi"
      ],
      [
        "ing",
        "s"
      ],
      [
        " f",
        "rom"
      ],
      [
        " b",
        "e consum"
      ],
      [
        " is",
        " k"
      ],
      [
        "ro",
        "u"
      ],
      [
        "ra",
        "g"
      ],
      [
        " tea",
        " is"
      ],
      [
        "us",
        "ually "
      ],
      [
        " w",
        "in"
      ],
      [
        "pp",
        "le"
      ]
    ]
  }
}